#include "magic_wand_model_data.h"


// We need to keep the data array aligned on some architectures.

#ifdef __has_attribute

#define HAVE_ATTRIBUTE(x) __has_attribute(x)

#else

#define HAVE_ATTRIBUTE(x) 0

#endif

#if HAVE_ATTRIBUTE(aligned) || (defined(__GNUC__) && !defined(__clang__))

#define DATA_ALIGN_ATTRIBUTE __attribute__((aligned(4)))

#else

#define DATA_ALIGN_ATTRIBUTE

#endif


const unsigned char g_magic_wand_model_data[] DATA_ALIGN_ATTRIBUTE = {

  // Paste the data of the char array in `src/model.cc` here
  0x08, 0x00, 0x00, 0x00, 0x54, 0x46, 0x4c, 0x33, 0x62, 0xff, 0xff, 0xff,
  0x03, 0x00, 0x00, 0x00, 0x10, 0x00, 0x00, 0x00, 0x24, 0x00, 0x00, 0x00,
  0x78, 0x00, 0x00, 0x00, 0x24, 0x00, 0x00, 0x00, 0x05, 0x00, 0x00, 0x00,
  0x78, 0x05, 0x00, 0x00, 0xb0, 0x04, 0x00, 0x00, 0xe0, 0x02, 0x00, 0x00,
  0x60, 0x02, 0x00, 0x00, 0x54, 0x01, 0x00, 0x00, 0x01, 0x00, 0x00, 0x00,
  0x78, 0x00, 0x00, 0x00, 0x13, 0x00, 0x00, 0x00, 0x18, 0x30, 0x00, 0x00,
  0x14, 0x30, 0x00, 0x00, 0x20, 0x2f, 0x00, 0x00, 0xa8, 0x2e, 0x00, 0x00,
  0x3c, 0x2e, 0x00, 0x00, 0xec, 0x11, 0x00, 0x00, 0x98, 0x10, 0x00, 0x00,
  0xbc, 0x0e, 0x00, 0x00, 0x60, 0x06, 0x00, 0x00, 0xfc, 0x05, 0x00, 0x00,
  0x78, 0x05, 0x00, 0x00, 0xec, 0x2f, 0x00, 0x00, 0xe8, 0x2f, 0x00, 0x00,
  0xe4, 0x2f, 0x00, 0x00, 0xe0, 0x2f, 0x00, 0x00, 0xdc, 0x2f, 0x00, 0x00,
  0xd8, 0x2f, 0x00, 0x00, 0xd4, 0x2f, 0x00, 0x00, 0xd0, 0x2f, 0x00, 0x00,
  0x0f, 0x00, 0x00, 0x00, 0x4d, 0x4c, 0x49, 0x52, 0x20, 0x43, 0x6f, 0x6e,
  0x76, 0x65, 0x72, 0x74, 0x65, 0x64, 0x2e, 0x00, 0x00, 0x00, 0x0e, 0x00,
  0x18, 0x00, 0x04, 0x00, 0x08, 0x00, 0x0c, 0x00, 0x10, 0x00, 0x14, 0x00,
  0x0e, 0x00, 0x00, 0x00, 0x14, 0x00, 0x00, 0x00, 0x5c, 0x00, 0x00, 0x00,
  0x60, 0x00, 0x00, 0x00, 0x64, 0x00, 0x00, 0x00, 0x84, 0x00, 0x00, 0x00,
  0x12, 0x00, 0x00, 0x00, 0x48, 0x2f, 0x00, 0x00, 0xe4, 0x2e, 0x00, 0x00,
  0x3c, 0x2e, 0x00, 0x00, 0xd8, 0x2d, 0x00, 0x00, 0x70, 0x2d, 0x00, 0x00,
  0x1c, 0x11, 0x00, 0x00, 0xc0, 0x0f, 0x00, 0x00, 0xe4, 0x0d, 0x00, 0x00,
  0xa0, 0x05, 0x00, 0x00, 0x3c, 0x05, 0x00, 0x00, 0xb0, 0x04, 0x00, 0x00,
  0xe8, 0x03, 0x00, 0x00, 0x38, 0x03, 0x00, 0x00, 0xa4, 0x02, 0x00, 0x00,
  0x10, 0x02, 0x00, 0x00, 0x90, 0x01, 0x00, 0x00, 0xfc, 0x00, 0x00, 0x00,
  0x80, 0x00, 0x00, 0x00, 0x01, 0x00, 0x00, 0x00, 0x00, 0x00, 0x00, 0x00,
  0x01, 0x00, 0x00, 0x00, 0x11, 0x00, 0x00, 0x00, 0x08, 0x00, 0x00, 0x00,
  0x1c, 0x04, 0x00, 0x00, 0x58, 0x03, 0x00, 0x00, 0xc8, 0x02, 0x00, 0x00,
  0x24, 0x02, 0x00, 0x00, 0xac, 0x01, 0x00, 0x00, 0x10, 0x01, 0x00, 0x00,
  0x94, 0x00, 0x00, 0x00, 0x10, 0x00, 0x00, 0x00, 0x04, 0x00, 0x00, 0x00,
  0x6d, 0x61, 0x69, 0x6e, 0x00, 0x00, 0x00, 0x00, 0x8e, 0xff, 0xff, 0xff,
  0x00, 0x00, 0x00, 0x09, 0x04, 0x00, 0x00, 0x00, 0x1c, 0x00, 0x00, 0x00,
  0x10, 0x00, 0x00, 0x00, 0x04, 0x00, 0x00, 0x00, 0x0a, 0xd2, 0xff, 0xff,
  0x00, 0x00, 0x80, 0x3f, 0x01, 0x00, 0x00, 0x00, 0x11, 0x00, 0x00, 0x00,
  0x01, 0x00, 0x00, 0x00, 0x10, 0x00, 0x00, 0x00, 0xf6, 0xfb, 0xff, 0xff,
  0x00, 0x00, 0x00, 0x19, 0x01, 0x00, 0x00, 0x00, 0x8a, 0xd1, 0xff, 0xff,
  0x10, 0x00, 0x00, 0x00, 0x12, 0x00, 0x00, 0x00, 0x14, 0x00, 0x00, 0x00,
  0x20, 0x00, 0x00, 0x00, 0x02, 0x00, 0x00, 0x00, 0x01, 0x00, 0x00, 0x00,
  0x04, 0x00, 0x00, 0x00, 0x08, 0x00, 0x00, 0x00, 0x49, 0x64, 0x65, 0x6e,
  0x74, 0x69, 0x74, 0x79, 0x00, 0x00, 0x00, 0x00, 0xc4, 0xd1, 0xff, 0xff,
  0x00, 0x00, 0x0e, 0x00, 0x18, 0x00, 0x08, 0x00, 0x0c, 0x00, 0x10, 0x00,
  0x07, 0x00, 0x14, 0x00, 0x0e, 0x00, 0x00, 0x00, 0x00, 0x00, 0x00, 0x08,
  0x03, 0x00, 0x00, 0x00, 0x18, 0x00, 0x00, 0x00, 0x0c, 0x00, 0x00, 0x00,
  0x04, 0x00, 0x00, 0x00, 0x98, 0xd1, 0xff, 0xff, 0x01, 0x00, 0x00, 0x00,
  0x10, 0x00, 0x00, 0x00, 0x03, 0x00, 0x00, 0x00, 0x0f, 0x00, 0x00, 0x00,
  0x05, 0x00, 0x00, 0x00, 0x02, 0x00, 0x00, 0x00, 0x02, 0xd2, 0xff, 0xff,
  0x10, 0x00, 0x00, 0x00, 0x11, 0x00, 0x00, 0x00, 0x14, 0x00, 0x00, 0x00,
  0x30, 0x00, 0x00, 0x00, 0x02, 0x00, 0x00, 0x00, 0x01, 0x00, 0x00, 0x00,
  0x04, 0x00, 0x00, 0x00, 0x1a, 0x00, 0x00, 0x00, 0x73, 0x65, 0x71, 0x75,
  0x65, 0x6e, 0x74, 0x69, 0x61, 0x6c, 0x2f, 0x64, 0x65, 0x6e, 0x73, 0x65,
  0x5f, 0x31, 0x2f, 0x42, 0x69, 0x61, 0x73, 0x41, 0x64, 0x64, 0x00, 0x00,
  0xf4, 0xd1, 0xff, 0xff, 0xd6, 0xfd, 0xff, 0xff, 0x00, 0x00, 0x00, 0x08,
  0x03, 0x00, 0x00, 0x00, 0x24, 0x00, 0x00, 0x00, 0x18, 0x00, 0x00, 0x00,
  0x0c, 0x00, 0x00, 0x00, 0x00, 0x00, 0x06, 0x00, 0x08, 0x00, 0x07, 0x00,
  0x06, 0x00, 0x00, 0x00, 0x00, 0x00, 0x00, 0x01, 0x01, 0x00, 0x00, 0x00,
  0x0f, 0x00, 0x00, 0x00, 0x03, 0x00, 0x00, 0x00, 0x0e, 0x00, 0x00, 0x00,
  0x04, 0x00, 0x00, 0x00, 0x01, 0x00, 0x00, 0x00, 0xfe, 0xfc, 0xff, 0xff,
  0x00, 0x00, 0x00, 0x09, 0x01, 0x00, 0x00, 0x00, 0x92, 0xd2, 0xff, 0xff,
  0x10, 0x00, 0x00, 0x00, 0x10, 0x00, 0x00, 0x00, 0x14, 0x00, 0x00, 0x00,
  0x2c, 0x00, 0x00, 0x00, 0x02, 0x00, 0x00, 0x00, 0x01, 0x00, 0x00, 0x00,
  0x10, 0x00, 0x00, 0x00, 0x15, 0x00, 0x00, 0x00, 0x73, 0x65, 0x71, 0x75,
  0x65, 0x6e, 0x74, 0x69, 0x61, 0x6c, 0x2f, 0x64, 0x65, 0x6e, 0x73, 0x65,
  0x2f, 0x52, 0x65, 0x6c, 0x75, 0x00, 0x00, 0x00, 0xd8, 0xd2, 0xff, 0xff,
  0x00, 0x00, 0x0a, 0x00, 0x10, 0x00, 0x04, 0x00, 0x08, 0x00, 0x0c, 0x00,
  0x0a, 0x00, 0x00, 0x00, 0x02, 0x00, 0x00, 0x00, 0x10, 0x00, 0x00, 0x00,
  0x04, 0x00, 0x00, 0x00, 0x01, 0x00, 0x00, 0x00, 0x0e, 0x00, 0x00, 0x00,
  0x02, 0x00, 0x00, 0x00, 0x0d, 0x00, 0x00, 0x00, 0x03, 0x00, 0x00, 0x00,
  0x7a, 0xfd, 0xff, 0xff, 0x00, 0x00, 0x00, 0x16, 0x01, 0x00, 0x00, 0x00,
  0x0e, 0xd3, 0xff, 0xff, 0x10, 0x00, 0x00, 0x00, 0x0f, 0x00, 0x00, 0x00,
  0x14, 0x00, 0x00, 0x00, 0x30, 0x00, 0x00, 0x00, 0x02, 0x00, 0x00, 0x00,
  0x01, 0x00, 0x00, 0x00, 0x70, 0x00, 0x00, 0x00, 0x1a, 0x00, 0x00, 0x00,
  0x73, 0x65, 0x71, 0x75, 0x65, 0x6e, 0x74, 0x69, 0x61, 0x6c, 0x2f, 0x66,
  0x6c, 0x61, 0x74, 0x74, 0x65, 0x6e, 0x2f, 0x52, 0x65, 0x73, 0x68, 0x61,
  0x70, 0x65, 0x00, 0x00, 0x00, 0xd3, 0xff, 0xff, 0xe2, 0xfe, 0xff, 0xff,
  0x00, 0x00, 0x00, 0x05, 0x01, 0x00, 0x00, 0x00, 0x38, 0x00, 0x00, 0x00,
  0x2c, 0x00, 0x00, 0x00, 0x14, 0x00, 0x00, 0x00, 0x00, 0x00, 0x0e, 0x00,
  0x14, 0x00, 0x00, 0x00, 0x10, 0x00, 0x0c, 0x00, 0x08, 0x00, 0x04, 0x00,
  0x0e, 0x00, 0x00, 0x00, 0x03, 0x00, 0x00, 0x00, 0x01, 0x00, 0x00, 0x00,
  0x03, 0x00, 0x00, 0x00, 0x01, 0x00, 0x00, 0x00, 0x01, 0x00, 0x00, 0x00,
  0x0d, 0x00, 0x00, 0x00, 0x01, 0x00, 0x00, 0x00, 0x0c, 0x00, 0x00, 0x00,
  0x9e, 0xd3, 0xff, 0xff, 0x10, 0x00, 0x00, 0x00, 0x0e, 0x00, 0x00, 0x00,
  0x1c, 0x00, 0x00, 0x00, 0x40, 0x00, 0x00, 0x00, 0x04, 0x00, 0x00, 0x00,
  0x01, 0x00, 0x00, 0x00, 0x07, 0x00, 0x00, 0x00, 0x01, 0x00, 0x00, 0x00,
  0x10, 0x00, 0x00, 0x00, 0x22, 0x00, 0x00, 0x00, 0x73, 0x65, 0x71, 0x75,
  0x65, 0x6e, 0x74, 0x69, 0x61, 0x6c, 0x2f, 0x6d, 0x61, 0x78, 0x5f, 0x70,
  0x6f, 0x6f, 0x6c, 0x69, 0x6e, 0x67, 0x32, 0x64, 0x5f, 0x31, 0x2f, 0x4d,
  0x61, 0x78, 0x50, 0x6f, 0x6f, 0x6c, 0x00, 0x00, 0xa0, 0xd3, 0xff, 0xff,
  0xc2, 0xfe, 0xff, 0xff, 0x00, 0x00, 0x00, 0x01, 0x24, 0x00, 0x00, 0x00,
  0x18, 0x00, 0x00, 0x00, 0x04, 0x00, 0x00, 0x00, 0xb4, 0xfe, 0xff, 0xff,
  0x01, 0x00, 0x00, 0x00, 0x01, 0x00, 0x00, 0x00, 0x00, 0x00, 0x00, 0x01,
  0x01, 0x00, 0x00, 0x00, 0x0c, 0x00, 0x00, 0x00, 0x03, 0x00, 0x00, 0x00,
  0x0b, 0x00, 0x00, 0x00, 0x07, 0x00, 0x00, 0x00, 0x09, 0x00, 0x00, 0x00,
  0x2e, 0xd4, 0xff, 0xff, 0x10, 0x00, 0x00, 0x00, 0x0d, 0x00, 0x00, 0x00,
  0x1c, 0x00, 0x00, 0x00, 0x2c, 0x00, 0x00, 0x00, 0x04, 0x00, 0x00, 0x00,
  0x01, 0x00, 0x00, 0x00, 0x15, 0x00, 0x00, 0x00, 0x01, 0x00, 0x00, 0x00,
  0x10, 0x00, 0x00, 0x00, 0x0c, 0x00, 0x00, 0x00, 0x74, 0x66, 0x6c, 0x2e,
  0x63, 0x6f, 0x6e, 0x76, 0x5f, 0x32, 0x64, 0x31, 0x00, 0x00, 0x00, 0x00,
  0x74, 0xd4, 0xff, 0xff, 0x00, 0x00, 0x0e, 0x00, 0x1a, 0x00, 0x08, 0x00,
  0x0c, 0x00, 0x10, 0x00, 0x07, 0x00, 0x14, 0x00, 0x0e, 0x00, 0x00, 0x00,
  0x00, 0x00, 0x00, 0x05, 0x01, 0x00, 0x00, 0x00, 0x3c, 0x00, 0x00, 0x00,
  0x30, 0x00, 0x00, 0x00, 0x14, 0x00, 0x00, 0x00, 0x00, 0x00, 0x0e, 0x00,
  0x18, 0x00, 0x17, 0x00, 0x10, 0x00, 0x0c, 0x00, 0x08, 0x00, 0x04, 0x00,
  0x0e, 0x00, 0x00, 0x00, 0x03, 0x00, 0x00, 0x00, 0x03, 0x00, 0x00, 0x00,
  0x03, 0x00, 0x00, 0x00, 0x03, 0x00, 0x00, 0x00, 0x00, 0x00, 0x00, 0x01,
  0x01, 0x00, 0x00, 0x00, 0x0b, 0x00, 0x00, 0x00, 0x01, 0x00, 0x00, 0x00,
  0x0a, 0x00, 0x00, 0x00, 0x46, 0xff, 0xff, 0xff, 0x00, 0x00, 0x00, 0x11,
  0x01, 0x00, 0x00, 0x00, 0xda, 0xd4, 0xff, 0xff, 0x10, 0x00, 0x00, 0x00,
  0x0c, 0x00, 0x00, 0x00, 0x1c, 0x00, 0x00, 0x00, 0x40, 0x00, 0x00, 0x00,
  0x04, 0x00, 0x00, 0x00, 0x01, 0x00, 0x00, 0x00, 0x15, 0x00, 0x00, 0x00,
  0x01, 0x00, 0x00, 0x00, 0x08, 0x00, 0x00, 0x00, 0x20, 0x00, 0x00, 0x00,
  0x73, 0x65, 0x71, 0x75, 0x65, 0x6e, 0x74, 0x69, 0x61, 0x6c, 0x2f, 0x6d,
  0x61, 0x78, 0x5f, 0x70, 0x6f, 0x6f, 0x6c, 0x69, 0x6e, 0x67, 0x32, 0x64,
  0x2f, 0x4d, 0x61, 0x78, 0x50, 0x6f, 0x6f, 0x6c, 0x00, 0x00, 0x00, 0x00,
  0x34, 0xd5, 0xff, 0xff, 0x00, 0x00, 0x0e, 0x00, 0x14, 0x00, 0x00, 0x00,
  0x08, 0x00, 0x0c, 0x00, 0x07, 0x00, 0x10, 0x00, 0x0e, 0x00, 0x00, 0x00,
  0x00, 0x00, 0x00, 0x01, 0x30, 0x00, 0x00, 0x00, 0x24, 0x00, 0x00, 0x00,
  0x10, 0x00, 0x00, 0x00, 0x0c, 0x00, 0x10, 0x00, 0x00, 0x00, 0x04, 0x00,
  0x08, 0x00, 0x0f, 0x00, 0x0c, 0x00, 0x00, 0x00, 0x01, 0x00, 0x00, 0x00,
  0x01, 0x00, 0x00, 0x00, 0x00, 0x00, 0x00, 0x01, 0x01, 0x00, 0x00, 0x00,
  0x0a, 0x00, 0x00, 0x00, 0x03, 0x00, 0x00, 0x00, 0x00, 0x00, 0x00, 0x00,
  0x06, 0x00, 0x00, 0x00, 0x08, 0x00, 0x00, 0x00, 0x00, 0x00, 0x0a, 0x00,
  0x0c, 0x00, 0x07, 0x00, 0x00, 0x00, 0x08, 0x00, 0x0a, 0x00, 0x00, 0x00,
  0x00, 0x00, 0x00, 0x03, 0x01, 0x00, 0x00, 0x00, 0x9e, 0xd5, 0xff, 0xff,
  0x10, 0x00, 0x00, 0x00, 0x0b, 0x00, 0x00, 0x00, 0x1c, 0x00, 0x00, 0x00,
  0x28, 0x00, 0x00, 0x00, 0x04, 0x00, 0x00, 0x00, 0x01, 0x00, 0x00, 0x00,
  0x40, 0x00, 0x00, 0x00, 0x03, 0x00, 0x00, 0x00, 0x08, 0x00, 0x00, 0x00,
  0x0b, 0x00, 0x00, 0x00, 0x74, 0x66, 0x6c, 0x2e, 0x63, 0x6f, 0x6e, 0x76,
  0x5f, 0x32, 0x64, 0x00, 0x88, 0xd5, 0xff, 0xff, 0x7e, 0xd6, 0xff, 0xff,
  0x04, 0x00, 0x00, 0x00, 0x40, 0x00, 0x00, 0x00, 0x50, 0x5f, 0x09, 0xc0,
  0x50, 0xc7, 0xb3, 0x3e, 0x3b, 0x5b, 0xb0, 0xbf, 0xac, 0x20, 0x96, 0x3f,
  0x43, 0xbd, 0xd0, 0xbf, 0x35, 0x87, 0xeb, 0xbf, 0xc7, 0xa2, 0xcd, 0xbf,
  0x5d, 0x5a, 0xdf, 0xbf, 0x46, 0xfc, 0x08, 0x3f, 0xfa, 0x07, 0x65, 0x40,
  0x6a, 0xb1, 0x0b, 0x3f, 0xa3, 0xe0, 0xad, 0x3f, 0x28, 0xdc, 0xcf, 0xbf,
  0xac, 0xa0, 0x03, 0xc0, 0x64, 0x1c, 0xff, 0x3e, 0xa9, 0x35, 0x94, 0x40,
  0x26, 0xd6, 0xff, 0xff, 0x10, 0x00, 0x00, 0x00, 0x0a, 0x00, 0x00, 0x00,
  0x10, 0x00, 0x00, 0x00, 0x20, 0x00, 0x00, 0x00, 0x01, 0x00, 0x00, 0x00,
  0x10, 0x00, 0x00, 0x00, 0x0d, 0x00, 0x00, 0x00, 0x73, 0x74, 0x64, 0x2e,
  0x63, 0x6f, 0x6e, 0x73, 0x74, 0x61, 0x6e, 0x74, 0x31, 0x00, 0x00, 0x00,
  0x08, 0xd6, 0xff, 0xff, 0xfe, 0xd6, 0xff, 0xff, 0x04, 0x00, 0x00, 0x00,
  0x20, 0x00, 0x00, 0x00, 0x3d, 0x6c, 0x23, 0xc0, 0x78, 0x8f, 0x01, 0xc0,
  0xea, 0x92, 0x49, 0x3d, 0x2a, 0x9b, 0xfc, 0xbf, 0xec, 0x24, 0x32, 0xc0,
  0x9d, 0x14, 0x0b, 0xbe, 0xf0, 0x96, 0xa4, 0xbe, 0x31, 0x40, 0xd2, 0x3f,
  0x86, 0xd6, 0xff, 0xff, 0x10, 0x00, 0x00, 0x00, 0x09, 0x00, 0x00, 0x00,
  0x10, 0x00, 0x00, 0x00, 0x20, 0x00, 0x00, 0x00, 0x01, 0x00, 0x00, 0x00,
  0x08, 0x00, 0x00, 0x00, 0x0c, 0x00, 0x00, 0x00, 0x73, 0x74, 0x64, 0x2e,
  0x63, 0x6f, 0x6e, 0x73, 0x74, 0x61, 0x6e, 0x74, 0x00, 0x00, 0x00, 0x00,
  0x68, 0xd6, 0xff, 0xff, 0x5e, 0xd7, 0xff, 0xff, 0x04, 0x00, 0x00, 0x00,
  0x00, 0x08, 0x00, 0x00, 0x71, 0xc1, 0xb5, 0xbc, 0xf7, 0x40, 0x3a, 0xbe,
  0x01, 0xcd, 0xb6, 0xbd, 0x15, 0x55, 0xe7, 0xbe, 0x6f, 0xdb, 0xfb, 0xbe,
  0xf7, 0xb2, 0x71, 0xbe, 0xfa, 0xf3, 0xfa, 0xbd, 0x21, 0xd4, 0xa0, 0xbc,
  0xc7, 0xc5, 0x89, 0xbd, 0x1a, 0xbf, 0x9a, 0xbe, 0xff, 0x42, 0x3d, 0xbe,
  0x2e, 0x27, 0x3c, 0xbe, 0x31, 0x2c, 0xaa, 0xbe, 0x50, 0x05, 0x76, 0xbe,
  0x65, 0xa1, 0x10, 0xbe, 0x0a, 0x07, 0x1d, 0xbd, 0xdd, 0x00, 0x04, 0xbb,
  0xec, 0xb4, 0x2d, 0xbe, 0xd1, 0xa7, 0x12, 0xbe, 0x0d, 0xaf, 0x1e, 0x3e,
  0x39, 0x33, 0x18, 0x3f, 0x0b, 0xea, 0xe6, 0x3d, 0x7d, 0xbd, 0xda, 0x3d,
  0x6a, 0x79, 0x04, 0xbc, 0x69, 0x46, 0xcb, 0x3d, 0xe9, 0xa5, 0xdf, 0x3d,
  0xda, 0x72, 0xc8, 0x3d, 0x19, 0xb2, 0xad, 0x3e, 0xe8, 0xcc, 0x1c, 0x3f,
  0x80, 0xa4, 0xac, 0xbd, 0xe4, 0xc7, 0x01, 0x3e, 0x8f, 0x97, 0x50, 0x3c,
  0xa5, 0x64, 0x32, 0xbe, 0xab, 0xf0, 0xad, 0xbe, 0xaa, 0x8a, 0x2f, 0x3e,
  0x59, 0xbd, 0xcf, 0x3e, 0x9c, 0xe7, 0x10, 0x3e, 0xd8, 0xe3, 0x2e, 0xbd,
  0x87, 0x90, 0x56, 0xbe, 0xee, 0x2c, 0xe1, 0xbd, 0x46, 0x16, 0x49, 0xbe,
  0x35, 0x83, 0xef, 0xbe, 0xdc, 0x6a, 0xed, 0x3d, 0x83, 0xc6, 0x05, 0x3d,
  0x61, 0x0e, 0x30, 0x3d, 0x69, 0x89, 0x80, 0x3d, 0x23, 0x23, 0x11, 0x3f,
  0xc7, 0xe7, 0xe5, 0xbd, 0x91, 0x66, 0x21, 0xbe, 0xaa, 0xb5, 0xab, 0xbe,
  0x04, 0xb6, 0x82, 0x3e, 0x76, 0x75, 0x55, 0xbc, 0x16, 0x72, 0x91, 0x3d,
  0xc3, 0x8d, 0x52, 0x3d, 0x1e, 0xe1, 0x1d, 0x3e, 0xbe, 0x9a, 0xf5, 0xbd,
  0x3a, 0x40, 0x2e, 0xbe, 0xbc, 0x90, 0x9c, 0xbe, 0xe1, 0x6e, 0x97, 0x3e,
  0xd5, 0x2e, 0x29, 0x3e, 0x71, 0xf6, 0x34, 0x3e, 0xb2, 0xcc, 0xd0, 0x3d,
  0x5b, 0x19, 0xbb, 0xbd, 0x8a, 0x4b, 0xd0, 0xbd, 0xd7, 0xc1, 0x5c, 0xbd,
  0x23, 0xe4, 0xc4, 0xbe, 0xcb, 0xda, 0x32, 0x3d, 0x32, 0x8e, 0xd2, 0x3e,
  0x47, 0x74, 0x1e, 0xbe, 0xba, 0x99, 0x4d, 0xbe, 0xfa, 0xd9, 0xb3, 0x3d,
  0x01, 0x7f, 0xfb, 0x3a, 0x9d, 0xbc, 0x6d, 0xbd, 0x85, 0x76, 0x94, 0xbe,
  0xfa, 0xa8, 0x14, 0xbe, 0xd6, 0x3a, 0x1b, 0xbd, 0x51, 0x38, 0x07, 0xbe,
  0xfc, 0xce, 0x0f, 0xbe, 0x35, 0x5f, 0x41, 0x3f, 0xa5, 0x13, 0x62, 0xbd,
  0x38, 0xc4, 0x83, 0xbc, 0xda, 0x0a, 0x1d, 0xbe, 0xbd, 0x9e, 0xcb, 0xbd,
  0xf4, 0x2e, 0x5f, 0xbd, 0xf5, 0x0e, 0x0a, 0x3e, 0x09, 0x5c, 0x81, 0xbd,
  0xbc, 0x90, 0xac, 0xbd, 0x79, 0x5a, 0x43, 0xbd, 0x14, 0xa7, 0x86, 0xbd,
  0x8d, 0x0a, 0x10, 0xbe, 0x96, 0x4a, 0x2b, 0xbe, 0xa0, 0x1f, 0x41, 0xbd,
  0x0f, 0x53, 0x35, 0x3e, 0xe5, 0x1b, 0x33, 0xbe, 0xc4, 0x5e, 0x78, 0xbd,
  0x3e, 0x1d, 0x36, 0xbd, 0x78, 0x30, 0x15, 0x3e, 0x4a, 0xb3, 0xfb, 0xbc,
  0xa1, 0xed, 0xa4, 0xbc, 0xd2, 0xb0, 0xb6, 0xbd, 0xd3, 0x8a, 0x3e, 0x3c,
  0x21, 0x4f, 0x7b, 0xbd, 0x8b, 0xaf, 0x4b, 0x3e, 0x7e, 0x3f, 0x74, 0xbd,
  0x35, 0x5b, 0xba, 0x3c, 0xd6, 0xb2, 0xf0, 0x3d, 0x84, 0x19, 0x8a, 0xbd,
  0x2e, 0xf4, 0xa4, 0x3b, 0xaa, 0x25, 0xac, 0xbd, 0xde, 0xc9, 0xc3, 0x3b,
  0x9e, 0xf4, 0x29, 0x3d, 0xb4, 0x18, 0x6c, 0x3d, 0xee, 0x15, 0xbb, 0x3d,
  0x0f, 0x03, 0x9b, 0xbc, 0x43, 0x45, 0xba, 0xbd, 0xea, 0xb0, 0x47, 0x3d,
  0x7e, 0xb4, 0xb3, 0x3b, 0xac, 0x4b, 0x4b, 0x3d, 0x42, 0xfa, 0x17, 0xbe,
  0xba, 0x96, 0x20, 0x3d, 0x3c, 0x0b, 0x31, 0xbd, 0xba, 0x9d, 0xa2, 0xbd,
  0x1f, 0x88, 0x88, 0xbc, 0xea, 0x57, 0x47, 0xbd, 0x1e, 0x29, 0x0b, 0x3d,
  0x25, 0x3b, 0x25, 0xbd, 0xf5, 0x9e, 0x43, 0xbd, 0x81, 0x76, 0x3c, 0x3d,
  0xde, 0xb6, 0x80, 0xbe, 0xa7, 0x31, 0xcd, 0xbd, 0xa3, 0xa7, 0x77, 0xbe,
  0xbc, 0xe3, 0x09, 0xbe, 0x9f, 0xe3, 0x9f, 0xbe, 0xa1, 0x13, 0x62, 0xbd,
  0x9f, 0xfc, 0x90, 0xbf, 0x7c, 0xda, 0x1d, 0xbe, 0x4c, 0xd9, 0x25, 0xbd,
  0x84, 0x23, 0xd9, 0xbc, 0xe9, 0x62, 0x97, 0x3e, 0x63, 0x74, 0x85, 0x3c,
  0xb9, 0xc6, 0xea, 0xbb, 0xbe, 0xaf, 0xc0, 0x3d, 0x35, 0x48, 0xa5, 0xbd,
  0xe3, 0xa3, 0x45, 0xbe, 0x57, 0xea, 0x2c, 0x3e, 0x76, 0x4a, 0x47, 0xbc,
  0xcd, 0x5d, 0xdb, 0xbd, 0x71, 0xff, 0x94, 0xbc, 0x51, 0x29, 0xf5, 0x3d,
  0xfc, 0x17, 0x7c, 0xbc, 0x4d, 0x29, 0x4a, 0xbe, 0xed, 0x5d, 0xb5, 0xbe,
  0x28, 0x2f, 0xa7, 0x3e, 0x24, 0x83, 0xdc, 0x3b, 0xd8, 0x45, 0xad, 0x3e,
  0xf2, 0xb4, 0x8a, 0x3d, 0x97, 0x53, 0x22, 0x3e, 0xcd, 0x7c, 0xc0, 0x3d,
  0xc8, 0x21, 0xda, 0xbe, 0x8b, 0xc2, 0x92, 0xbe, 0xc9, 0x47, 0x51, 0x3e,
  0x07, 0x71, 0x61, 0xbc, 0xf9, 0x04, 0x1d, 0x3e, 0xfc, 0xec, 0x6e, 0xbb,
  0x8e, 0xec, 0xb6, 0xbd, 0xf6, 0x7f, 0x76, 0xbc, 0x01, 0xc1, 0x3d, 0xbf,
  0x6f, 0xd6, 0xa2, 0xbe, 0x06, 0xa5, 0x13, 0xbe, 0x78, 0x7a, 0x75, 0x3d,
  0xaa, 0xee, 0x66, 0x3e, 0x91, 0x0c, 0xa2, 0xbb, 0x10, 0x91, 0x72, 0x3e,
  0x49, 0x7c, 0x5d, 0x3e, 0x22, 0x97, 0x52, 0xbf, 0x71, 0x28, 0x73, 0xbe,
  0xdc, 0xe5, 0xec, 0x3d, 0x16, 0xde, 0x3e, 0xbd, 0xa5, 0xca, 0x87, 0x3d,
  0xd5, 0x73, 0x1f, 0xbd, 0x50, 0x2e, 0xe4, 0x3d, 0x8a, 0xb5, 0x08, 0x3e,
  0x98, 0x9e, 0x5b, 0xbf, 0x6d, 0x73, 0x99, 0xbe, 0xdd, 0x9a, 0x10, 0xbe,
  0xcb, 0x78, 0x71, 0xbe, 0xee, 0xe0, 0xfc, 0xbe, 0xfd, 0xd2, 0x9b, 0xbe,
  0xd2, 0x95, 0x06, 0xbf, 0x9a, 0x51, 0x97, 0xbe, 0x4b, 0x4f, 0xd9, 0xbe,
  0x21, 0xb5, 0x97, 0xbe, 0x27, 0x11, 0x00, 0x3d, 0xfb, 0x29, 0x10, 0x3e,
  0x2f, 0x75, 0xb4, 0x3e, 0xcd, 0xd3, 0x0f, 0x3f, 0x08, 0x6b, 0x83, 0x3d,
  0xad, 0x1f, 0x2b, 0xbf, 0xd4, 0x14, 0xc4, 0xbe, 0xfc, 0x24, 0x53, 0xbe,
  0xa8, 0xcd, 0xa6, 0xbd, 0x7e, 0xb4, 0xfa, 0xbd, 0xfc, 0x4b, 0xc6, 0x3b,
  0xba, 0x46, 0xb7, 0xbd, 0xd2, 0x09, 0x7d, 0xbf, 0x85, 0x02, 0x0a, 0xbf,
  0xbc, 0xe6, 0x8a, 0xbe, 0x74, 0xd6, 0xf5, 0xbd, 0x79, 0x63, 0x12, 0x3c,
  0x6d, 0xeb, 0xed, 0xbd, 0xd9, 0x0e, 0x34, 0x3e, 0xe1, 0xf4, 0x7b, 0xbe,
  0x8c, 0x95, 0x81, 0xbe, 0x59, 0x77, 0xaf, 0x3d, 0x17, 0x04, 0x13, 0x3e,
  0x6d, 0x3f, 0x47, 0x3d, 0xdb, 0x82, 0x1d, 0xbc, 0x15, 0xad, 0x6f, 0xbe,
  0xfb, 0x1a, 0xd8, 0x3d, 0x46, 0x24, 0xbb, 0xbe, 0xc4, 0xcb, 0x3d, 0x3e,
  0x62, 0x4d, 0xc7, 0x3d, 0x55, 0xfe, 0xa2, 0x3d, 0x03, 0x5f, 0x2d, 0x3e,
  0x90, 0xd6, 0xad, 0x3d, 0xf1, 0xd9, 0x54, 0xbd, 0x64, 0x09, 0x1d, 0xbe,
  0x88, 0x3d, 0xf4, 0xbd, 0x76, 0x69, 0xf0, 0x3d, 0x18, 0x72, 0xca, 0xbd,
  0xa2, 0x69, 0x1f, 0xbe, 0xf7, 0x73, 0xc8, 0xbd, 0x93, 0x02, 0xfa, 0x3e,
  0x1c, 0x17, 0x36, 0xbd, 0x2f, 0x41, 0x1e, 0xbe, 0x57, 0xf3, 0x2a, 0xbd,
  0x58, 0xb6, 0xa2, 0x3d, 0xf2, 0x60, 0x8a, 0xbd, 0xf3, 0xf6, 0x95, 0xbe,
  0xbd, 0x90, 0xb4, 0xbd, 0x3c, 0xdb, 0xd9, 0xbd, 0x35, 0xf5, 0x84, 0xba,
  0xab, 0xe6, 0x01, 0x3d, 0xef, 0x85, 0x4f, 0x3d, 0x1f, 0x72, 0x22, 0x3c,
  0x86, 0x19, 0x96, 0xbd, 0xca, 0xc4, 0xb3, 0xbe, 0xaa, 0x23, 0x25, 0x3d,
  0x7e, 0x6f, 0x2d, 0xbb, 0xe2, 0x52, 0x2b, 0xbc, 0x86, 0xbf, 0x3a, 0x3d,
  0xe2, 0xee, 0x0c, 0x39, 0x8b, 0x53, 0xd5, 0x3c, 0xb3, 0x7b, 0xd2, 0xbd,
  0xcc, 0xf0, 0x2f, 0xbe, 0x31, 0x17, 0xbf, 0x3c, 0xab, 0x83, 0x56, 0xbe,
  0x69, 0x76, 0x95, 0x3d, 0xc9, 0xf7, 0x19, 0xbf, 0x8a, 0xe2, 0x9f, 0x3d,
  0xea, 0x43, 0x02, 0xbf, 0x05, 0xdc, 0xb9, 0x3d, 0xb1, 0x82, 0xd3, 0xbd,
  0x89, 0x23, 0x29, 0x3e, 0xf3, 0x2d, 0x71, 0xbe, 0x05, 0xe9, 0x31, 0x3e,
  0x3d, 0xbe, 0xd8, 0xbe, 0xe3, 0xc6, 0x13, 0x3e, 0x82, 0xfa, 0x09, 0xbf,
  0xba, 0x1f, 0x12, 0x3b, 0x69, 0x6e, 0x51, 0xbe, 0x58, 0x3d, 0x87, 0x3d,
  0x22, 0x42, 0x54, 0xbe, 0x96, 0x87, 0xd3, 0xbd, 0x0b, 0x55, 0x2d, 0x3d,
  0x60, 0xf0, 0x09, 0xbe, 0x8f, 0x6c, 0xe2, 0xbd, 0xa0, 0x66, 0xc3, 0x3d,
  0x3f, 0xca, 0x38, 0xbf, 0x52, 0xfd, 0x73, 0x3c, 0xf7, 0xc5, 0x91, 0xbd,
  0x47, 0x3b, 0x9a, 0xbd, 0xe3, 0x92, 0xea, 0x3d, 0xad, 0x69, 0xcf, 0xbd,
  0x3f, 0x1f, 0xca, 0xbd, 0x3c, 0xd7, 0xcb, 0xbd, 0x10, 0x0a, 0xc6, 0xbe,
  0x6f, 0x9a, 0x86, 0xbd, 0xe7, 0x06, 0x4f, 0xbc, 0x3e, 0x3f, 0xf6, 0xb9,
  0xf9, 0x34, 0x42, 0xbe, 0x8e, 0x5c, 0x17, 0x3c, 0x6e, 0x97, 0x55, 0xbc,
  0xf0, 0x9b, 0xf1, 0xbe, 0x56, 0x6f, 0x48, 0xbe, 0xbd, 0x51, 0x63, 0x3e,
  0xad, 0x99, 0x9f, 0xbd, 0x26, 0x48, 0x36, 0x3d, 0x86, 0xbc, 0x7d, 0xbe,
  0x52, 0xd7, 0x80, 0x3d, 0x83, 0x84, 0x3f, 0xbe, 0x2c, 0xba, 0xcd, 0xbe,
  0xcf, 0x3f, 0x46, 0xbe, 0xb6, 0x2a, 0x59, 0x3d, 0xe8, 0x71, 0x1e, 0xbe,
  0x1b, 0xa0, 0x4e, 0xbd, 0x88, 0x3e, 0x0e, 0xbe, 0x95, 0x44, 0xac, 0x3d,
  0xaf, 0x13, 0xb8, 0x3d, 0x91, 0x91, 0x06, 0xbf, 0x5d, 0x7f, 0xd2, 0x3c,
  0x83, 0xd3, 0x6a, 0xbe, 0x0d, 0x9f, 0x2a, 0x3d, 0x01, 0x7f, 0xc0, 0x3d,
  0x62, 0xed, 0x10, 0x3f, 0x71, 0xfe, 0xa3, 0x3d, 0xd2, 0x9a, 0xa9, 0x3e,
  0x10, 0x9d, 0x3c, 0xbf, 0x17, 0x5c, 0x93, 0x3c, 0x53, 0x88, 0x5b, 0xbe,
  0xa5, 0x5e, 0x5b, 0xbe, 0x57, 0x26, 0x3a, 0xbe, 0xf0, 0x76, 0x41, 0xbe,
  0x90, 0x31, 0x2b, 0xbe, 0x9e, 0xb4, 0xca, 0xbe, 0x6a, 0x03, 0x5c, 0xbe,
  0x48, 0x10, 0xf5, 0xbe, 0xd7, 0x67, 0x87, 0xbe, 0x42, 0xd2, 0xf4, 0x3e,
  0x38, 0x5b, 0xd4, 0x3c, 0x35, 0x25, 0x10, 0x3f, 0x43, 0x7f, 0xc7, 0xbc,
  0x2b, 0xce, 0xf4, 0x3c, 0x36, 0xa8, 0xa0, 0x3d, 0x32, 0x4f, 0x47, 0xbe,
  0x8b, 0x2a, 0xa8, 0x3b, 0x5b, 0x29, 0x09, 0x3d, 0xd5, 0x48, 0xa5, 0xbd,
  0xa9, 0x66, 0x65, 0xbe, 0xbc, 0x03, 0x47, 0xbe, 0x34, 0xb4, 0x9e, 0xbe,
  0x87, 0x1f, 0x09, 0xbe, 0xbb, 0xa8, 0x66, 0xbe, 0x2d, 0x23, 0x4e, 0x3b,
  0xf6, 0xc6, 0xf4, 0x3c, 0xe2, 0x28, 0x96, 0xbd, 0xe6, 0x53, 0x0d, 0xbd,
  0xed, 0x0b, 0x1f, 0xbe, 0xab, 0x29, 0x88, 0x3d, 0x9b, 0xfa, 0xf2, 0xbd,
  0x46, 0x66, 0xd6, 0xbd, 0x2e, 0x6c, 0xad, 0xbc, 0x20, 0x10, 0xd5, 0xbd,
  0xe7, 0xd9, 0x10, 0xbe, 0xce, 0x1d, 0x82, 0xbe, 0xb5, 0x6a, 0xe3, 0xbd,
  0xb1, 0x7a, 0x5d, 0xbe, 0xd6, 0xae, 0x84, 0x3d, 0x3d, 0xe2, 0x55, 0xbe,
  0xce, 0x00, 0x80, 0x3d, 0xcd, 0xd9, 0xdf, 0xbd, 0x52, 0x0b, 0xa8, 0xbd,
  0xff, 0x3a, 0x80, 0xbe, 0x3c, 0x6f, 0x84, 0x3e, 0x66, 0xfa, 0x01, 0xbe,
  0x4b, 0x4d, 0x2f, 0x3d, 0x1c, 0xbb, 0xe4, 0xbc, 0xdc, 0xb6, 0x8e, 0x3e,
  0xef, 0x4c, 0xa3, 0xbd, 0xab, 0xfd, 0x8c, 0x3e, 0x2b, 0xe9, 0x0b, 0xbe,
  0x6c, 0x4c, 0xc7, 0xbe, 0x8d, 0x2c, 0xa7, 0xbe, 0xd6, 0x5a, 0x99, 0x3d,
  0x20, 0x77, 0xf0, 0x3d, 0x33, 0x18, 0x34, 0x3c, 0x0b, 0x0d, 0xb1, 0xbe,
  0x89, 0x2f, 0xac, 0xbe, 0x2b, 0x9a, 0x7d, 0x3e, 0x9e, 0x03, 0xdd, 0xbc,
  0xf1, 0x81, 0xfc, 0xbe, 0x3f, 0x8a, 0xdd, 0xbe, 0xbc, 0x60, 0x21, 0x3e,
  0x26, 0x59, 0x23, 0xbe, 0xb7, 0x3f, 0x8d, 0x3d, 0x03, 0x95, 0xb1, 0xbe,
  0x27, 0x40, 0xe7, 0x3c, 0x2f, 0x4c, 0xae, 0x3b, 0xf5, 0xfa, 0x9e, 0x3d,
  0x88, 0x5b, 0x00, 0xbe, 0xa5, 0xdc, 0xc2, 0x3e, 0x6f, 0x72, 0x92, 0x3e,
  0xcf, 0xa7, 0xb7, 0xbd, 0x33, 0x37, 0x40, 0xbe, 0xa9, 0x44, 0x84, 0xbe,
  0x90, 0xa7, 0x33, 0x3e, 0x1b, 0x69, 0x1e, 0x3e, 0x75, 0xbe, 0xbb, 0x3c,
  0xc3, 0xcf, 0x6f, 0xbe, 0xd6, 0xa1, 0x7e, 0x3c, 0xb4, 0x13, 0xcb, 0xbd,
  0x33, 0x34, 0xef, 0xbc, 0x52, 0xcc, 0xfc, 0xbc, 0x94, 0x67, 0xbb, 0x3d,
  0x6d, 0xfb, 0x4e, 0x3e, 0x23, 0xdd, 0x12, 0x3e, 0x88, 0x58, 0x1c, 0xbe,
  0xdc, 0x91, 0x5f, 0xbe, 0x3c, 0x29, 0xcf, 0xbd, 0xaf, 0x02, 0x41, 0x3b,
  0x05, 0xd9, 0xa7, 0x3c, 0x0a, 0x64, 0xe1, 0xba, 0x10, 0xce, 0x86, 0xbb,
  0x5d, 0x82, 0x6b, 0xbe, 0x07, 0xea, 0x65, 0xbf, 0xfd, 0x4e, 0xb6, 0xbe,
  0xf3, 0xe9, 0x7a, 0x3d, 0xb1, 0x17, 0xab, 0x3e, 0x6f, 0x24, 0xfd, 0x3e,
  0x42, 0xd5, 0x41, 0x3f, 0xcc, 0xd1, 0x73, 0xbd, 0xe5, 0x71, 0xd5, 0xbe,
  0x60, 0x79, 0x1b, 0xbd, 0x3c, 0xbf, 0x55, 0xbc, 0xbe, 0x02, 0x3a, 0xbd,
  0xe3, 0xe8, 0x79, 0xbd, 0xc0, 0x7c, 0x0e, 0x3e, 0x49, 0x22, 0x60, 0xbe,
  0xd8, 0xd4, 0x73, 0xbd, 0xf6, 0x43, 0xc9, 0xbe, 0x99, 0x86, 0x11, 0xbd,
  0x78, 0x82, 0x90, 0x3c, 0x89, 0xe8, 0x9a, 0xbd, 0x6a, 0x22, 0x45, 0xbe,
  0xef, 0x6c, 0xeb, 0x3c, 0xd2, 0x8b, 0xd0, 0xbe, 0xde, 0x91, 0x8a, 0xbe,
  0xc4, 0xda, 0x3a, 0xbe, 0xb2, 0xdc, 0xd7, 0x3d, 0xcc, 0x61, 0x8f, 0xbc,
  0x4d, 0x74, 0xbd, 0xbd, 0x6e, 0xdd, 0xa1, 0xbe, 0xda, 0xda, 0x41, 0xbe,
  0x5e, 0x04, 0xd0, 0xbe, 0xf7, 0xc3, 0xf7, 0xbd, 0xbf, 0x3c, 0x89, 0x3e,
  0xef, 0x3c, 0x8a, 0x3c, 0x52, 0xfb, 0x8e, 0xbc, 0x1f, 0x64, 0x87, 0xbe,
  0x47, 0xba, 0x22, 0x3d, 0x64, 0x3a, 0xf6, 0xbe, 0xfa, 0x4d, 0x6b, 0x3d,
  0x0f, 0xa6, 0xbb, 0xbe, 0x54, 0xc7, 0x29, 0xbe, 0x42, 0xd4, 0x14, 0xbe,
  0xd2, 0x9e, 0x1a, 0xbd, 0xec, 0xac, 0xb1, 0xbe, 0x0a, 0x15, 0xe5, 0xbc,
  0xec, 0x91, 0xcf, 0xbe, 0xd2, 0x36, 0xec, 0x3d, 0x69, 0x98, 0x92, 0xbe,
  0x4c, 0x55, 0x9e, 0x3d, 0xca, 0xe9, 0x25, 0x3e, 0xe1, 0x8b, 0x99, 0x3d,
  0xec, 0x4d, 0x34, 0xbe, 0xe4, 0x02, 0xb5, 0xb8, 0x84, 0x4e, 0x1c, 0xbe,
  0x8f, 0x2a, 0x9b, 0xbe, 0x69, 0x1d, 0x10, 0x3c, 0x62, 0x46, 0x60, 0x3d,
  0x06, 0xc0, 0x47, 0xbe, 0xe6, 0xd4, 0x06, 0xbd, 0xb1, 0x24, 0xdc, 0x3d,
  0xa6, 0x90, 0x6d, 0xbe, 0x74, 0x9e, 0x53, 0x3e, 0x53, 0x47, 0x52, 0xbd,
  0xf1, 0x33, 0x29, 0xbe, 0x00, 0x27, 0x04, 0xbe, 0x95, 0xaf, 0xf8, 0x3e,
  0x05, 0xae, 0x12, 0xbc, 0xae, 0x59, 0xdf, 0x3d, 0x89, 0x20, 0xe4, 0x3d,
  0x2a, 0xb8, 0x09, 0x3e, 0xd3, 0x59, 0x8a, 0xbd, 0xb3, 0xb8, 0x4e, 0xbe,
  0x21, 0xd5, 0x1e, 0xbf, 0x18, 0x37, 0xbb, 0xbe, 0x16, 0x9c, 0x53, 0x3e,
  0x5e, 0x41, 0xc9, 0x3c, 0x28, 0x2d, 0x8d, 0xbb, 0xed, 0x5a, 0x60, 0x3d,
  0x92, 0xdc, 0x18, 0xbd, 0x08, 0x71, 0x6d, 0xbe, 0x39, 0xbc, 0x76, 0xbe,
  0xba, 0x30, 0x1d, 0xbf, 0x5c, 0x8f, 0x37, 0xbc, 0x83, 0x51, 0x5f, 0xbe,
  0xa1, 0xc5, 0xe7, 0xbe, 0xd8, 0x52, 0xfe, 0xbd, 0xa4, 0xaf, 0xba, 0xbe,
  0x18, 0x00, 0x99, 0xbe, 0x00, 0xaf, 0x51, 0x3b, 0x35, 0x7c, 0xb7, 0xbe,
  0xf5, 0xbd, 0xc1, 0xbc, 0x05, 0x6d, 0x88, 0xbe, 0xae, 0xd1, 0xf0, 0xbe,
  0x0c, 0xa0, 0x91, 0xbc, 0x5e, 0x7f, 0xad, 0xbe, 0x3f, 0xc9, 0x1a, 0xbd,
  0x9f, 0xee, 0x2f, 0xbd, 0xe3, 0xd3, 0xc1, 0xbd, 0x67, 0x11, 0x79, 0x39,
  0xc6, 0xde, 0xff, 0xff, 0x10, 0x00, 0x00, 0x00, 0x08, 0x00, 0x00, 0x00,
  0x1c, 0x00, 0x00, 0x00, 0x38, 0x00, 0x00, 0x00, 0x04, 0x00, 0x00, 0x00,
  0x10, 0x00, 0x00, 0x00, 0x04, 0x00, 0x00, 0x00, 0x01, 0x00, 0x00, 0x00,
  0x08, 0x00, 0x00, 0x00, 0x1a, 0x00, 0x00, 0x00, 0x73, 0x65, 0x71, 0x75,
  0x65, 0x6e, 0x74, 0x69, 0x61, 0x6c, 0x2f, 0x63, 0x6f, 0x6e, 0x76, 0x32,
  0x64, 0x5f, 0x31, 0x2f, 0x43, 0x6f, 0x6e, 0x76, 0x32, 0x44, 0x00, 0x00,
  0xc0, 0xde, 0xff, 0xff, 0xb6, 0xdf, 0xff, 0xff, 0x04, 0x00, 0x00, 0x00,
  0x80, 0x01, 0x00, 0x00, 0x44, 0x03, 0x98, 0xbd, 0xf4, 0x14, 0x5a, 0x3e,
  0xf6, 0x30, 0xcb, 0x3e, 0x08, 0xd5, 0x09, 0x3d, 0x41, 0x6a, 0x7d, 0x3e,
  0x3e, 0x42, 0x81, 0x3c, 0xbc, 0xb8, 0xdb, 0xbc, 0xf9, 0xda, 0x6a, 0x3e,
  0xc1, 0x76, 0x6c, 0xbc, 0x39, 0x74, 0x3e, 0x3c, 0xd3, 0xc6, 0x6a, 0x3d,
  0x47, 0x1b, 0x24, 0x3d, 0x98, 0x1d, 0x66, 0x3d, 0x82, 0xdb, 0xe4, 0xbd,
  0xf5, 0x29, 0x2a, 0x3e, 0x6d, 0x68, 0x12, 0xbd, 0x44, 0x96, 0xc6, 0xbc,
  0x1b, 0x17, 0xcc, 0x3d, 0xeb, 0x1f, 0xa0, 0xbd, 0xea, 0xfa, 0x60, 0x3d,
  0xe9, 0x9b, 0xac, 0xbc, 0x61, 0x0a, 0x48, 0xbd, 0x41, 0x85, 0xb8, 0x3d,
  0xcb, 0xe7, 0x85, 0x3c, 0xdf, 0x0b, 0x94, 0x3d, 0xc7, 0x8f, 0xb5, 0xbe,
  0x20, 0x16, 0x81, 0x3e, 0xbd, 0x25, 0x23, 0xbe, 0x47, 0x37, 0x37, 0xbc,
  0x47, 0xcf, 0x9a, 0x3e, 0x4c, 0x22, 0xcb, 0x3d, 0xa2, 0xe7, 0xd2, 0x3e,
  0x32, 0x0a, 0x8d, 0xbe, 0x76, 0x60, 0xeb, 0x3b, 0xe8, 0xa1, 0x3b, 0x3d,
  0x57, 0xde, 0x89, 0x3c, 0x45, 0xf1, 0x84, 0x3c, 0x4c, 0x59, 0x15, 0xbc,
  0xca, 0x28, 0x1d, 0xbe, 0x22, 0xcc, 0x40, 0x3e, 0xbd, 0x82, 0x3b, 0x3e,
  0xfb, 0x4c, 0x7d, 0xbe, 0x86, 0xf2, 0x4c, 0xbd, 0x76, 0x26, 0xe2, 0xbd,
  0xf5, 0x8d, 0x88, 0x3e, 0xdc, 0x59, 0x23, 0xbe, 0x9d, 0x50, 0xb3, 0xbd,
  0x53, 0x5a, 0x1d, 0x3e, 0xe4, 0x01, 0xde, 0x3e, 0xf0, 0xe5, 0x93, 0x3e,
  0x99, 0xed, 0x05, 0x3e, 0x4f, 0x75, 0x42, 0x3e, 0x56, 0xf1, 0x86, 0x3d,
  0xb5, 0xcb, 0xb9, 0x3c, 0xa6, 0x16, 0xa0, 0xbe, 0x86, 0x54, 0x3d, 0xbe,
  0xf2, 0x78, 0x66, 0x3b, 0x2d, 0xbc, 0x27, 0xbe, 0x87, 0x04, 0x1e, 0xbe,
  0xb7, 0x21, 0x04, 0x3d, 0x86, 0xca, 0xd6, 0x3e, 0x7c, 0x68, 0x76, 0x3d,
  0x60, 0x7c, 0x1d, 0x3e, 0x06, 0x75, 0x1d, 0xbd, 0x7d, 0xa9, 0xbb, 0x3d,
  0xcb, 0xbf, 0x67, 0xbe, 0x28, 0xf1, 0xea, 0xbc, 0xe0, 0x5a, 0x57, 0xbe,
  0x58, 0xda, 0x96, 0x3e, 0xf8, 0x08, 0x2f, 0xbc, 0x4a, 0x47, 0x86, 0x3e,
  0x29, 0x06, 0x91, 0xbe, 0x57, 0xe6, 0xc6, 0x3e, 0x49, 0x3e, 0x89, 0xbc,
  0xeb, 0x9f, 0xa8, 0xbe, 0x6b, 0xc9, 0xf1, 0x3e, 0x20, 0x39, 0xb9, 0x3e,
  0xb6, 0xa3, 0x88, 0x3e, 0x8a, 0xe1, 0x43, 0xbd, 0x1d, 0x41, 0x9f, 0x3e,
  0xe1, 0xe1, 0xab, 0x3e, 0x00, 0xd8, 0x9b, 0xbe, 0x23, 0x3c, 0x65, 0xbe,
  0x60, 0xa4, 0xdb, 0xbd, 0xfb, 0x42, 0x43, 0x3e, 0x4d, 0x6e, 0x73, 0x3e,
  0x7d, 0x5f, 0x00, 0x3e, 0xd4, 0x61, 0xee, 0x3c, 0x3b, 0xf2, 0xb1, 0x3d,
  0x73, 0x74, 0x8a, 0xbd, 0xac, 0x6d, 0x8c, 0x3e, 0xbb, 0xde, 0xad, 0x3e,
  0xba, 0x46, 0x13, 0xbd, 0x00, 0xa6, 0xd4, 0xbc, 0xae, 0x79, 0xc5, 0x3e,
  0x6a, 0x81, 0xaf, 0x3b, 0x9e, 0xe0, 0xff, 0xff, 0x10, 0x00, 0x00, 0x00,
  0x07, 0x00, 0x00, 0x00, 0x1c, 0x00, 0x00, 0x00, 0x38, 0x00, 0x00, 0x00,
  0x04, 0x00, 0x00, 0x00, 0x08, 0x00, 0x00, 0x00, 0x04, 0x00, 0x00, 0x00,
  0x03, 0x00, 0x00, 0x00, 0x01, 0x00, 0x00, 0x00, 0x18, 0x00, 0x00, 0x00,
  0x73, 0x65, 0x71, 0x75, 0x65, 0x6e, 0x74, 0x69, 0x61, 0x6c, 0x2f, 0x63,
  0x6f, 0x6e, 0x76, 0x32, 0x64, 0x2f, 0x43, 0x6f, 0x6e, 0x76, 0x32, 0x44,
  0x00, 0x00, 0x00, 0x00, 0x98, 0xe0, 0xff, 0xff, 0x8e, 0xe1, 0xff, 0xff,
  0x04, 0x00, 0x00, 0x00, 0x00, 0x01, 0x00, 0x00, 0x39, 0xbf, 0x96, 0x3c,
  0x7b, 0x64, 0x9f, 0xbd, 0x4e, 0x2d, 0x09, 0x3e, 0xca, 0xf0, 0x41, 0x3d,
  0x76, 0x1d, 0x0a, 0xbe, 0x70, 0x25, 0xd1, 0x3d, 0xf2, 0x29, 0x00, 0x3c,
  0x23, 0xef, 0x87, 0xbd, 0x81, 0x08, 0x52, 0xbd, 0xb2, 0xa5, 0x08, 0x3e,
  0x55, 0x2b, 0x14, 0x3f, 0xc9, 0xec, 0x50, 0x3d, 0x81, 0xf8, 0x1d, 0xbe,
  0x79, 0xfa, 0x49, 0x3e, 0xbd, 0x8c, 0x62, 0x3e, 0xbc, 0x43, 0x72, 0x3c,
  0x38, 0x75, 0x62, 0xbc, 0x0e, 0x33, 0x06, 0xbf, 0x14, 0xbf, 0x05, 0x3e,
  0x9a, 0x90, 0x67, 0x3c, 0x2c, 0xc3, 0x04, 0xbe, 0x06, 0xe9, 0x37, 0x3d,
  0xa0, 0xac, 0xb2, 0x3d, 0x41, 0x0b, 0x95, 0x3e, 0x14, 0x4d, 0x10, 0x3b,
  0x2e, 0xd9, 0xcf, 0xbe, 0xcf, 0x58, 0xff, 0x3a, 0x71, 0x52, 0xbd, 0x3d,
  0x9c, 0x7b, 0x0d, 0xbe, 0xf8, 0x2e, 0x83, 0x3e, 0xd9, 0xa1, 0x75, 0x3e,
  0x99, 0x87, 0x89, 0xbc, 0x98, 0x36, 0x30, 0x3c, 0xa1, 0x24, 0x16, 0xbf,
  0x6d, 0xce, 0xa0, 0x3d, 0xf1, 0x80, 0x98, 0xbd, 0x7a, 0xf5, 0x90, 0xbe,
  0xfd, 0x91, 0x96, 0x3e, 0xf1, 0xe0, 0xfd, 0xbe, 0xdc, 0xb8, 0xb8, 0x3e,
  0xdf, 0x7f, 0x28, 0xbe, 0xc0, 0x37, 0x14, 0xbf, 0x08, 0x8b, 0xfb, 0xbe,
  0xbb, 0x13, 0x4c, 0xbb, 0x13, 0x55, 0x2a, 0xbe, 0xcc, 0xd6, 0x86, 0xbe,
  0x0c, 0x63, 0xad, 0x3d, 0x54, 0xfe, 0x29, 0xbd, 0x27, 0xca, 0xd3, 0xbd,
  0xb1, 0x39, 0x67, 0xbe, 0xdf, 0x3d, 0x26, 0x3e, 0x08, 0xf5, 0x9b, 0x3c,
  0x1b, 0x21, 0x32, 0xbe, 0x8c, 0x9e, 0x3a, 0x3e, 0x92, 0x9d, 0x29, 0x3d,
  0xe6, 0x08, 0xa9, 0xbe, 0xea, 0xec, 0x8a, 0xbd, 0x08, 0xaa, 0xee, 0xbe,
  0x63, 0x81, 0x19, 0xbe, 0xcb, 0xa6, 0x49, 0x3d, 0x71, 0x10, 0xc1, 0xbd,
  0x94, 0x9d, 0x75, 0x3e, 0x25, 0xbd, 0x85, 0x3e, 0xc6, 0xcf, 0xf9, 0xbc,
  0xf6, 0xe1, 0xff, 0xff, 0x10, 0x00, 0x00, 0x00, 0x06, 0x00, 0x00, 0x00,
  0x14, 0x00, 0x00, 0x00, 0x30, 0x00, 0x00, 0x00, 0x02, 0x00, 0x00, 0x00,
  0x04, 0x00, 0x00, 0x00, 0x10, 0x00, 0x00, 0x00, 0x19, 0x00, 0x00, 0x00,
  0x73, 0x65, 0x71, 0x75, 0x65, 0x6e, 0x74, 0x69, 0x61, 0x6c, 0x2f, 0x64,
  0x65, 0x6e, 0x73, 0x65, 0x5f, 0x31, 0x2f, 0x4d, 0x61, 0x74, 0x4d, 0x75,
  0x6c, 0x00, 0x00, 0x00, 0xe8, 0xe1, 0xff, 0xff, 0xde, 0xe2, 0xff, 0xff,
  0x04, 0x00, 0x00, 0x00, 0x00, 0x1c, 0x00, 0x00, 0x95, 0x84, 0x09, 0xbd,
  0x6b, 0x5d, 0x59, 0xbe, 0x89, 0x0f, 0x94, 0xbe, 0x70, 0xe0, 0x9b, 0xbe,
  0x7d, 0x6c, 0x89, 0xbd, 0x46, 0x82, 0x0f, 0xbd, 0x64, 0xf8, 0x9d, 0x3e,
  0xed, 0x8d, 0xef, 0xbe, 0xcd, 0xf8, 0xc8, 0x3d, 0x79, 0x97, 0x01, 0x3d,
  0xc8, 0xeb, 0x26, 0xbe, 0x4d, 0x47, 0x96, 0x3e, 0x1e, 0xc9, 0xbc, 0x3d,
  0x19, 0xad, 0x2f, 0x3e, 0xd8, 0xd9, 0x7f, 0x3d, 0xbc, 0xa3, 0xda, 0x3f,
  0xd7, 0x0d, 0x84, 0x3e, 0x72, 0xab, 0xa3, 0xbe, 0xb5, 0xfe, 0x48, 0xbe,
  0x29, 0xe7, 0xcb, 0xbd, 0x54, 0xe5, 0xa6, 0x3d, 0x3e, 0x9d, 0x9c, 0xbe,
  0x56, 0xde, 0x4f, 0x3e, 0xa1, 0x20, 0x14, 0xbe, 0x43, 0x95, 0xf1, 0x3d,
  0x9d, 0xac, 0x84, 0xbe, 0xc2, 0xbe, 0x8d, 0xbe, 0x84, 0x9a, 0x05, 0x3e,
  0xa2, 0x1c, 0x77, 0xbe, 0x9f, 0xfe, 0x4d, 0x3e, 0x6f, 0x89, 0xc9, 0x3c,
  0xc9, 0xe4, 0xda, 0x3f, 0xd8, 0x4a, 0xcd, 0x3e, 0x91, 0xc6, 0x6d, 0xbe,
  0x2b, 0xe1, 0x42, 0xbe, 0xb9, 0x30, 0x50, 0xbc, 0x2a, 0x37, 0xe5, 0x3d,
  0xbc, 0xbd, 0xd5, 0x3c, 0x39, 0x5c, 0xe2, 0x3d, 0xb4, 0xdb, 0xbe, 0xbb,
  0xca, 0x32, 0xe1, 0x3d, 0xd6, 0x61, 0xd0, 0xbd, 0xa6, 0x38, 0xda, 0xbd,
  0xa7, 0x2b, 0xb7, 0x3e, 0x88, 0xab, 0x34, 0x3e, 0x35, 0x7d, 0xd3, 0xbd,
  0x28, 0xa0, 0x55, 0x3d, 0xf4, 0x2a, 0x04, 0x40, 0x9e, 0xea, 0x6c, 0x3e,
  0x97, 0xa6, 0x9b, 0xbe, 0xe0, 0x6a, 0x22, 0x3d, 0xe9, 0x5e, 0x81, 0x3b,
  0x9e, 0x98, 0x1a, 0x3d, 0xd2, 0x69, 0xa6, 0x3d, 0xe8, 0x55, 0x2a, 0x3e,
  0xc9, 0xe7, 0xe9, 0x3d, 0xd5, 0xc0, 0x29, 0xbc, 0x80, 0x22, 0x8b, 0xbd,
  0x43, 0x52, 0x60, 0xbd, 0xec, 0x04, 0x8b, 0x3e, 0xf1, 0xb3, 0x0e, 0x3e,
  0xe9, 0x84, 0x2e, 0x3e, 0x51, 0x79, 0x30, 0xbc, 0xa8, 0x59, 0xb3, 0x3f,
  0xbb, 0x70, 0xa2, 0x3d, 0xd4, 0x28, 0x76, 0xbe, 0x80, 0x71, 0x93, 0xbe,
  0x24, 0x18, 0x9d, 0x3c, 0x4b, 0x26, 0x7e, 0xbc, 0x56, 0xda, 0xda, 0xbd,
  0x25, 0xd5, 0xa6, 0x3e, 0x9d, 0x73, 0xfb, 0x3c, 0x68, 0xa5, 0xc7, 0x3d,
  0x89, 0x8e, 0x3d, 0x3d, 0x10, 0xfd, 0x4a, 0xbd, 0x31, 0x2e, 0x2a, 0x3d,
  0x65, 0x1b, 0x1d, 0x3e, 0x87, 0xdc, 0x68, 0x3e, 0x6b, 0x59, 0x46, 0xbd,
  0x17, 0x34, 0xaa, 0x3f, 0x37, 0x1e, 0x81, 0x3d, 0xb4, 0x0a, 0x62, 0xbe,
  0xf3, 0x90, 0xa3, 0xbe, 0x55, 0x73, 0x5c, 0x3d, 0x92, 0x4c, 0x05, 0x3e,
  0x62, 0xc8, 0x53, 0xbe, 0x48, 0x14, 0x70, 0x3e, 0x1e, 0x12, 0x91, 0x3c,
  0xd6, 0x89, 0xc7, 0xbd, 0xe8, 0xf4, 0xab, 0x3d, 0xcd, 0x45, 0x09, 0xbe,
  0x27, 0xfa, 0x9a, 0x3e, 0x0f, 0xcb, 0xb3, 0xbe, 0xb6, 0x5c, 0x8b, 0x3e,
  0xb6, 0xa6, 0x40, 0xbe, 0x9d, 0xb5, 0x13, 0x40, 0x98, 0x0e, 0x28, 0x3e,
  0x05, 0xab, 0x68, 0xbe, 0x7f, 0xfa, 0xb3, 0xbe, 0x99, 0xde, 0x79, 0x3d,
  0xed, 0xaa, 0xdd, 0x3d, 0x43, 0xea, 0xeb, 0x3d, 0x8c, 0x7f, 0x9a, 0xbe,
  0xd5, 0x45, 0xed, 0x3d, 0x6c, 0xda, 0x30, 0xbd, 0x01, 0x4c, 0x8e, 0x3e,
  0x42, 0xba, 0xaf, 0x3d, 0xec, 0x0a, 0xb7, 0xbd, 0x86, 0x4c, 0xae, 0xbd,
  0xe1, 0x4b, 0xd1, 0xbc, 0xfb, 0x8e, 0x14, 0xbf, 0x17, 0x91, 0xed, 0xbd,
  0x9b, 0xfb, 0x38, 0x3c, 0x3f, 0xcb, 0x21, 0xbe, 0xd4, 0xd8, 0x86, 0xbd,
  0x35, 0x77, 0xdb, 0xbd, 0x7a, 0x73, 0x54, 0xbe, 0xd0, 0x94, 0xe4, 0x3d,
  0x44, 0x25, 0x92, 0x39, 0xe8, 0xca, 0x65, 0xbe, 0x0f, 0x20, 0x1e, 0x3e,
  0x52, 0xff, 0x16, 0xbe, 0x36, 0x90, 0x29, 0xbe, 0x1a, 0x05, 0x7e, 0xbd,
  0xa0, 0xaf, 0x77, 0xbc, 0x9e, 0xd8, 0x08, 0x3b, 0x88, 0x83, 0x03, 0x3e,
  0x9d, 0xd7, 0x34, 0xbe, 0xdb, 0x78, 0xbf, 0x3d, 0xd8, 0x90, 0xf9, 0xbd,
  0x59, 0xa6, 0x5d, 0x3c, 0x20, 0xf6, 0xba, 0xbe, 0xfd, 0x69, 0x75, 0x3d,
  0x3b, 0xcd, 0x3f, 0x3d, 0xff, 0x28, 0xe6, 0xbc, 0x62, 0xe3, 0xf1, 0xbd,
  0x71, 0xa5, 0xa6, 0x3d, 0x2c, 0xe4, 0x53, 0xbd, 0x2e, 0xd6, 0x4d, 0xbe,
  0x59, 0x65, 0x15, 0x3d, 0x0c, 0x9e, 0xbd, 0x3d, 0xb0, 0xf8, 0x83, 0xbd,
  0x4c, 0x75, 0x00, 0xbd, 0x70, 0x79, 0x39, 0x3e, 0x09, 0xd8, 0x7a, 0xbe,
  0x75, 0x6d, 0x4f, 0x3d, 0x38, 0x68, 0xf6, 0xbc, 0x26, 0x03, 0x4c, 0xbe,
  0x34, 0xa6, 0xbe, 0x3d, 0x59, 0x20, 0x4a, 0xbe, 0x18, 0xeb, 0x4e, 0xbe,
  0x1f, 0x25, 0xb4, 0xbd, 0xe4, 0x5a, 0x64, 0x3c, 0x12, 0x50, 0xf8, 0x3d,
  0xc9, 0x6e, 0x3c, 0xbd, 0x07, 0x4d, 0x28, 0x3e, 0x7e, 0x5d, 0x4e, 0xbe,
  0xd6, 0xd1, 0xbf, 0xbd, 0xaf, 0xa6, 0x52, 0xbd, 0x08, 0xe3, 0xc2, 0x3d,
  0xf4, 0x3a, 0x4d, 0xbe, 0xd5, 0xf1, 0x5b, 0x3d, 0xf0, 0xe2, 0x6e, 0xbd,
  0x03, 0xa5, 0x60, 0xbe, 0x05, 0x0c, 0x18, 0xbe, 0xe6, 0xca, 0x24, 0xbe,
  0x7e, 0xca, 0x9f, 0x3d, 0x31, 0x43, 0x65, 0xbe, 0x2d, 0x33, 0xfa, 0xbd,
  0x9c, 0xf3, 0xe9, 0x3c, 0x03, 0xaf, 0x91, 0xbe, 0x02, 0xf6, 0x2f, 0xbd,
  0x6d, 0x70, 0x02, 0x3d, 0xa2, 0x78, 0xba, 0xbd, 0xec, 0x02, 0x0c, 0xbe,
  0x63, 0xba, 0xc3, 0x3d, 0x45, 0xbe, 0x0f, 0xbe, 0xb6, 0x5d, 0x05, 0xbe,
  0xae, 0x34, 0x4a, 0x3d, 0x5a, 0x30, 0x56, 0xbe, 0xe9, 0x27, 0xb4, 0xbd,
  0x8f, 0x01, 0x2e, 0x3e, 0xc1, 0xa1, 0x58, 0xbe, 0x9d, 0x72, 0xdf, 0xbd,
  0x43, 0xa3, 0x04, 0xbe, 0xf2, 0x40, 0x45, 0xbe, 0xe5, 0xb2, 0x09, 0xbb,
  0x05, 0x67, 0xbb, 0x3d, 0x7a, 0xeb, 0x0b, 0x3e, 0xdb, 0xca, 0xbb, 0xbd,
  0x2b, 0x32, 0x59, 0xbe, 0xd7, 0x1a, 0x48, 0xbe, 0xae, 0xa0, 0x55, 0xbd,
  0x50, 0x8a, 0x93, 0xbe, 0xc2, 0xb0, 0x80, 0xbc, 0x04, 0xe7, 0x90, 0xbe,
  0xdb, 0x02, 0x17, 0xbe, 0xf3, 0xa4, 0x9e, 0xbd, 0x18, 0x63, 0xc9, 0x3d,
  0x64, 0x85, 0xb5, 0xbe, 0x28, 0x8c, 0x20, 0x3e, 0x5f, 0xa5, 0x8d, 0xbd,
  0xc5, 0x47, 0x1c, 0x3d, 0x72, 0x93, 0xd5, 0xbd, 0xe6, 0x83, 0xa1, 0x3d,
  0x39, 0x21, 0xb8, 0x3d, 0xf0, 0xd3, 0x57, 0x3e, 0x80, 0x29, 0x21, 0xbe,
  0xc6, 0x79, 0x28, 0x3d, 0x8a, 0x2e, 0x76, 0xbe, 0xa6, 0x50, 0x82, 0xbe,
  0x39, 0xd9, 0xa7, 0xbe, 0xa5, 0xdd, 0x0a, 0xbe, 0xb7, 0xcf, 0x25, 0x3d,
  0x70, 0xad, 0x17, 0xbe, 0xf5, 0xf0, 0x1b, 0xbe, 0xb0, 0x2d, 0x43, 0xbe,
  0x9a, 0x76, 0x80, 0xbe, 0xbf, 0xc2, 0x6f, 0xbe, 0xf3, 0x2c, 0xdc, 0x3d,
  0x1f, 0x63, 0xaf, 0x3d, 0xf6, 0xc4, 0xda, 0xbb, 0x50, 0xe0, 0x5c, 0x3e,
  0xee, 0x9e, 0x2d, 0x3b, 0xaa, 0xb1, 0xa7, 0xbe, 0x4e, 0x17, 0x4a, 0xbe,
  0xea, 0x65, 0x16, 0xbf, 0x19, 0x00, 0x24, 0x3e, 0xee, 0x82, 0xdd, 0x3d,
  0x70, 0xa0, 0x2a, 0x3e, 0xac, 0x14, 0xd2, 0xbe, 0x15, 0xd1, 0x96, 0x3e,
  0x72, 0x17, 0x95, 0x3c, 0x33, 0xe5, 0x2b, 0x3e, 0xb5, 0x79, 0x5a, 0x3e,
  0x43, 0xc4, 0x25, 0xbe, 0x6c, 0x6c, 0xf2, 0xbd, 0x31, 0x82, 0x5d, 0xbe,
  0x94, 0x99, 0x4e, 0x3e, 0xfa, 0x10, 0xba, 0xbe, 0x4d, 0x4f, 0xfd, 0xbe,
  0x7f, 0xcf, 0xb9, 0x3e, 0xc5, 0x28, 0x1e, 0xbe, 0x62, 0x87, 0xbf, 0x3d,
  0x99, 0xcc, 0x20, 0x3d, 0xe3, 0x1d, 0x4a, 0x3e, 0x5d, 0xc6, 0x18, 0xbf,
  0xc2, 0xb5, 0x89, 0x3d, 0x7b, 0x5d, 0x0e, 0xbd, 0x37, 0x51, 0x8c, 0x3e,
  0x04, 0xfb, 0x90, 0x3d, 0xaf, 0xad, 0xae, 0x3d, 0xe5, 0x0d, 0x9d, 0x3e,
  0xbf, 0xf6, 0xe1, 0xbe, 0xe1, 0xf9, 0x9f, 0x3d, 0xc3, 0xac, 0x3b, 0xbf,
  0xe9, 0x73, 0x32, 0xbf, 0xa5, 0xdc, 0x91, 0x3e, 0x3f, 0xff, 0xfa, 0xbc,
  0x1a, 0x00, 0xff, 0x3c, 0x62, 0x04, 0x4f, 0xbc, 0xf7, 0x99, 0x50, 0xbd,
  0xb4, 0x0b, 0x43, 0x3c, 0x2f, 0x03, 0x6d, 0xbc, 0x89, 0x16, 0x84, 0x3d,
  0xc2, 0xdb, 0x7d, 0x3e, 0xc4, 0x4b, 0x5d, 0x3d, 0x46, 0x14, 0xaa, 0x3d,
  0xd0, 0xfc, 0x66, 0x3d, 0x76, 0xac, 0x06, 0x3e, 0xc5, 0x4e, 0xb8, 0xbd,
  0x2f, 0xf7, 0xf8, 0xbe, 0x75, 0xd7, 0x12, 0xbf, 0x90, 0x7e, 0xd3, 0x3e,
  0xe0, 0xf6, 0xb5, 0x3d, 0x3b, 0xdb, 0x4b, 0x3a, 0x72, 0x3a, 0xdb, 0x3c,
  0xcd, 0xf5, 0xb3, 0x3c, 0xec, 0x40, 0xae, 0xbd, 0x4d, 0xff, 0x73, 0xbc,
  0xfa, 0x40, 0xa2, 0xbd, 0x0b, 0x1c, 0x9d, 0x3e, 0x91, 0xf6, 0xa1, 0xbd,
  0x79, 0xf0, 0x20, 0x3e, 0xe9, 0x24, 0xb5, 0x3d, 0x3a, 0xf3, 0x0a, 0xbe,
  0x86, 0x40, 0x6a, 0x3d, 0xb9, 0xd4, 0xe7, 0xbe, 0x87, 0xf7, 0xb3, 0xbe,
  0x68, 0x34, 0xb5, 0x3e, 0xa6, 0x15, 0x34, 0xbd, 0xa4, 0xef, 0xc1, 0x3b,
  0x1b, 0xf8, 0x81, 0x3c, 0x73, 0xac, 0xd1, 0xbd, 0x48, 0xc8, 0x12, 0xbe,
  0xa7, 0x7e, 0xec, 0xbc, 0xe9, 0x66, 0x17, 0x3d, 0x82, 0x49, 0x01, 0x3e,
  0x56, 0xcc, 0xa3, 0xbd, 0xa8, 0x48, 0x4d, 0x3e, 0x7f, 0xd7, 0x7a, 0x3c,
  0xc8, 0x40, 0x9c, 0x3d, 0x37, 0x70, 0xa8, 0x3e, 0xa7, 0xc9, 0xa7, 0xbe,
  0x88, 0xd2, 0x57, 0xbf, 0x41, 0xe7, 0x3d, 0x3b, 0x01, 0xe0, 0xf1, 0xbd,
  0x6c, 0x1d, 0xe6, 0xbc, 0x31, 0x61, 0x1d, 0xbe, 0x0b, 0x9d, 0xd7, 0xbd,
  0x05, 0xcd, 0xd6, 0xbe, 0x15, 0x99, 0x99, 0xbd, 0xa4, 0xd8, 0xde, 0x3d,
  0xd2, 0xde, 0xf3, 0xbd, 0x81, 0xd2, 0xe8, 0x3c, 0x15, 0xdf, 0x01, 0x3f,
  0x3e, 0xb0, 0x56, 0xbe, 0x5c, 0xee, 0x0b, 0xbe, 0x9c, 0x54, 0xe0, 0x3d,
  0x20, 0xb9, 0xbb, 0xbe, 0xba, 0x2c, 0xbf, 0xbe, 0x3a, 0x7b, 0x59, 0xbe,
  0x58, 0x76, 0x0c, 0xbd, 0x49, 0xbb, 0xf2, 0xbc, 0x7c, 0xe5, 0xb1, 0xbd,
  0xf2, 0xe1, 0xec, 0xbd, 0xc6, 0x8c, 0x9a, 0xbd, 0x7f, 0x7a, 0x03, 0xbe,
  0x57, 0x3a, 0x60, 0x3d, 0xeb, 0x2e, 0x88, 0x3d, 0x2f, 0x69, 0xcc, 0xbd,
  0x6f, 0x9a, 0xb0, 0x3d, 0x28, 0x4c, 0x13, 0xbd, 0x29, 0x80, 0x3c, 0xbc,
  0x3e, 0xdc, 0x9f, 0x3d, 0xc1, 0x28, 0xdc, 0x3e, 0xe4, 0xab, 0x4e, 0x3c,
  0xe0, 0x2d, 0xfb, 0xbd, 0x1d, 0x97, 0x5e, 0xbe, 0xfa, 0x16, 0xa5, 0x3c,
  0xd9, 0xca, 0x26, 0x3e, 0x4a, 0xba, 0x9a, 0x3d, 0x9c, 0x70, 0x84, 0x3c,
  0x51, 0x21, 0x96, 0x3e, 0x2f, 0x1a, 0x2f, 0xbd, 0x41, 0x0b, 0x2b, 0x3e,
  0x09, 0x99, 0xb6, 0x3d, 0x1d, 0xbc, 0xee, 0xbd, 0x2c, 0x64, 0x59, 0xbe,
  0xb0, 0x4b, 0x91, 0x3e, 0xc5, 0xe4, 0xfa, 0xbb, 0x33, 0xa5, 0xd2, 0x3f,
  0x36, 0x6f, 0x0d, 0x3e, 0x93, 0x58, 0x9c, 0x3c, 0x05, 0xec, 0xd4, 0xbd,
  0xfa, 0xea, 0x0b, 0x3d, 0x7b, 0x58, 0x08, 0xbd, 0x2d, 0x0f, 0x57, 0xbd,
  0x99, 0x5c, 0x73, 0xbd, 0x7b, 0x49, 0x93, 0xbc, 0x60, 0x32, 0xa2, 0x3a,
  0x8e, 0x91, 0x8b, 0x3e, 0x7f, 0x98, 0x8d, 0xbd, 0x92, 0x9d, 0x1d, 0x3e,
  0x12, 0x0f, 0x2b, 0x3d, 0x9b, 0x82, 0x69, 0x3e, 0x71, 0x14, 0xed, 0x3d,
  0xc5, 0x8a, 0xaa, 0x3f, 0x40, 0xb9, 0xae, 0x3d, 0x7c, 0x03, 0x2f, 0x3e,
  0xad, 0xb4, 0x1c, 0xbe, 0xb9, 0x06, 0x6c, 0xbc, 0x96, 0x86, 0xe6, 0xbd,
  0xb2, 0x94, 0xac, 0x3d, 0xb0, 0x63, 0x4f, 0x3d, 0x9c, 0x90, 0x88, 0xbd,
  0x0b, 0xea, 0xbe, 0xbd, 0xb5, 0x79, 0xa8, 0x3e, 0x2d, 0xe9, 0x04, 0xbe,
  0x89, 0x1e, 0x77, 0x3d, 0xb5, 0x88, 0xee, 0x3e, 0xec, 0xad, 0x7a, 0xbd,
  0xc2, 0xce, 0xb3, 0xbc, 0xfd, 0xf7, 0xd2, 0x3f, 0x55, 0xaa, 0x32, 0x3e,
  0xf9, 0x58, 0x4e, 0x3e, 0xef, 0xb3, 0xa5, 0xbd, 0x41, 0x7c, 0x94, 0x38,
  0xa7, 0x0e, 0x1f, 0xbd, 0x9e, 0x9f, 0xd6, 0xbc, 0xb3, 0xeb, 0xcb, 0x3d,
  0x29, 0x1a, 0x03, 0xbd, 0xde, 0xb2, 0x3b, 0xbe, 0x1b, 0xc8, 0x08, 0x3f,
  0x3d, 0x3e, 0x9c, 0xbd, 0x12, 0x16, 0x0d, 0x3e, 0xf3, 0xe6, 0xc4, 0x3e,
  0x28, 0x69, 0x9c, 0x3d, 0x0c, 0xb9, 0xc0, 0xbd, 0x08, 0x2f, 0xef, 0x3f,
  0x8c, 0x67, 0x64, 0x3c, 0x5b, 0x61, 0xa2, 0x3c, 0xd1, 0x6d, 0xb6, 0xbe,
  0xc9, 0xd9, 0xcb, 0x3c, 0x4e, 0x08, 0x66, 0xbc, 0x25, 0xde, 0x39, 0x3d,
  0x11, 0x4c, 0xa2, 0x3e, 0x3d, 0x3f, 0x84, 0xbc, 0x08, 0x7e, 0x2f, 0xbe,
  0x14, 0x74, 0x0d, 0x3f, 0x0a, 0xc6, 0xb3, 0xbd, 0xdf, 0xd4, 0x4f, 0x3e,
  0x5e, 0xf2, 0x9d, 0x3d, 0x56, 0xf2, 0xa6, 0x3e, 0x75, 0x3d, 0xcf, 0xbe,
  0x9a, 0x43, 0xd6, 0x3f, 0xec, 0x96, 0x75, 0xbb, 0x02, 0xe5, 0xc4, 0xbd,
  0x53, 0x83, 0x92, 0xbe, 0x22, 0x35, 0xf5, 0x3c, 0x57, 0x39, 0xfe, 0xbd,
  0xe0, 0xfc, 0xe6, 0x3d, 0xcf, 0x2e, 0x3f, 0x3e, 0xaf, 0x53, 0xc8, 0xbd,
  0x83, 0xbc, 0x74, 0x3d, 0xa9, 0x52, 0x01, 0x3f, 0x51, 0x65, 0x24, 0xbd,
  0x4c, 0x05, 0x43, 0x3e, 0x24, 0x71, 0x50, 0xbe, 0x58, 0x9e, 0x94, 0x3e,
  0x5b, 0x9c, 0x2a, 0xbe, 0x2a, 0x64, 0x23, 0x40, 0x3f, 0xfb, 0x95, 0xba,
  0x46, 0x15, 0xed, 0xbd, 0x34, 0x07, 0x8b, 0xbd, 0x5e, 0x2b, 0x92, 0x3c,
  0x16, 0x24, 0x0f, 0xbe, 0x71, 0x37, 0x19, 0xbe, 0x61, 0x5a, 0x8d, 0x3e,
  0x50, 0xba, 0x12, 0xbe, 0xeb, 0x68, 0xa1, 0xbc, 0x7c, 0x4f, 0x96, 0x3e,
  0x4b, 0x29, 0x0e, 0xbe, 0x44, 0xa9, 0x4c, 0x3e, 0x30, 0x46, 0x5a, 0x3b,
  0xa3, 0x55, 0xd6, 0x3c, 0x1f, 0x33, 0xc9, 0xbd, 0xb1, 0x4b, 0x01, 0x3f,
  0xea, 0x75, 0xd4, 0x3d, 0x58, 0x85, 0x53, 0x3d, 0xd8, 0x7c, 0x41, 0x3e,
  0x77, 0xc3, 0x4c, 0x3d, 0x5c, 0xbf, 0xd6, 0xbb, 0x5a, 0xc4, 0x0d, 0xbe,
  0xc3, 0xac, 0xfb, 0x3d, 0xe8, 0xea, 0x09, 0x3e, 0xde, 0xa5, 0x00, 0xbf,
  0x3b, 0x00, 0xa4, 0xbe, 0x6e, 0xc5, 0xa4, 0xbd, 0xb7, 0xaa, 0x63, 0xbe,
  0xce, 0x16, 0x4a, 0x3d, 0xcb, 0x7f, 0xcb, 0x3d, 0xd9, 0x20, 0x23, 0xbe,
  0xb5, 0xae, 0x12, 0xbe, 0x3d, 0xb1, 0x81, 0x3d, 0x96, 0x70, 0x32, 0xbe,
  0x6a, 0x30, 0x27, 0x3d, 0x13, 0xe2, 0x2a, 0x3b, 0xf0, 0x97, 0xbc, 0xbd,
  0x95, 0xf0, 0x0d, 0x3d, 0x8c, 0xa0, 0x6f, 0x3e, 0xa2, 0x6f, 0x20, 0xbd,
  0x07, 0x6d, 0xb0, 0xbe, 0xfa, 0xbe, 0x88, 0x3d, 0x06, 0x1f, 0x31, 0x3c,
  0x58, 0x5e, 0x54, 0xbe, 0xbc, 0x8e, 0x2d, 0x3e, 0x74, 0x3a, 0x37, 0x3e,
  0x90, 0x17, 0xa3, 0xbe, 0xa9, 0x77, 0x7a, 0xbe, 0xf0, 0x93, 0x10, 0x3d,
  0x67, 0xe2, 0x9c, 0xbe, 0x50, 0xef, 0x14, 0xbd, 0x2e, 0x98, 0x76, 0xbc,
  0xa7, 0xc2, 0x85, 0xbd, 0x9a, 0x25, 0x88, 0x3d, 0x0c, 0xd7, 0xe8, 0x3d,
  0x5c, 0xd9, 0xd8, 0x3c, 0xa7, 0x45, 0xc2, 0xbd, 0x57, 0x86, 0x28, 0x3e,
  0x9a, 0x52, 0x94, 0xbc, 0xd3, 0xb5, 0x22, 0xbe, 0xfa, 0x96, 0xd7, 0x3c,
  0x37, 0x38, 0x38, 0x3d, 0x57, 0x10, 0x9e, 0xbe, 0x89, 0x79, 0x32, 0xbe,
  0x45, 0x90, 0x8c, 0x3d, 0x7a, 0x7d, 0xe1, 0xbe, 0x37, 0x13, 0x43, 0xbe,
  0x54, 0x41, 0x2e, 0xbd, 0x24, 0xf9, 0xab, 0xbc, 0x8f, 0xb2, 0x89, 0x3d,
  0x3d, 0x26, 0xef, 0x3d, 0x95, 0x52, 0x72, 0xbc, 0x68, 0x04, 0xb6, 0xbd,
  0xc0, 0xd4, 0xa7, 0x3c, 0x69, 0x69, 0x93, 0xbd, 0xe0, 0xb4, 0xd1, 0xbd,
  0x98, 0x00, 0x36, 0x3d, 0x4b, 0x19, 0x36, 0x3d, 0xde, 0x8c, 0x79, 0x3d,
  0x7e, 0x7d, 0x79, 0x3d, 0x5d, 0x2c, 0xad, 0x3d, 0x26, 0xb0, 0x4c, 0xbe,
  0xa0, 0xa0, 0x29, 0xbd, 0x7f, 0x28, 0x9d, 0xbc, 0x88, 0x45, 0x8f, 0xbc,
  0x06, 0x51, 0x37, 0x3e, 0x39, 0xee, 0x46, 0x3e, 0x87, 0xc6, 0xca, 0x3a,
  0x58, 0x1c, 0x45, 0xbe, 0xb7, 0x36, 0xab, 0x3d, 0x44, 0xcb, 0x1e, 0xbd,
  0x49, 0xa3, 0x8d, 0xbe, 0x18, 0xb4, 0xd3, 0x3c, 0x7f, 0xbe, 0x84, 0x3d,
  0x7c, 0x4e, 0x5d, 0x3d, 0x26, 0xf6, 0x08, 0xbe, 0xba, 0xca, 0xd9, 0x3d,
  0x7e, 0xba, 0x4a, 0xbd, 0xe8, 0xa1, 0xc1, 0x3d, 0xcb, 0x0a, 0xd9, 0xbb,
  0x6f, 0x0f, 0xeb, 0xbc, 0x4d, 0x90, 0x31, 0x3c, 0x8b, 0xfc, 0x11, 0x3e,
  0xe7, 0xc4, 0x86, 0xbc, 0x7b, 0xc3, 0x08, 0xbe, 0x9f, 0x9d, 0x0f, 0x3d,
  0xea, 0x8d, 0x11, 0xbc, 0x25, 0x5a, 0x37, 0xbe, 0x5e, 0xc0, 0xf7, 0x3d,
  0xfd, 0x7f, 0xa5, 0x3d, 0x61, 0x25, 0x48, 0x3e, 0xd1, 0xab, 0x87, 0xbe,
  0x8e, 0x6a, 0xfe, 0x3c, 0x05, 0xfe, 0xc6, 0x3c, 0x66, 0xec, 0x8c, 0xbc,
  0x8e, 0x53, 0x1c, 0xbc, 0xbd, 0x16, 0xe9, 0xbd, 0xc0, 0xf9, 0x8d, 0xbd,
  0x3e, 0x43, 0x3b, 0x3e, 0x54, 0xec, 0xde, 0xbc, 0x27, 0xfe, 0xe0, 0xbd,
  0x87, 0x67, 0x9b, 0x3e, 0xc7, 0x59, 0x80, 0x3d, 0x9d, 0x99, 0x29, 0xbd,
  0xa0, 0x53, 0x26, 0x3d, 0xb8, 0x49, 0x5c, 0x3d, 0x68, 0x98, 0x2d, 0xbe,
  0x14, 0x23, 0x24, 0xbd, 0xbf, 0x66, 0x13, 0xbe, 0xd5, 0x06, 0x0a, 0xbe,
  0xf4, 0xe5, 0x3f, 0xbe, 0xbb, 0x29, 0x9e, 0xbe, 0x9f, 0x82, 0x3b, 0xbe,
  0xcb, 0x1f, 0xbe, 0x3d, 0x31, 0x31, 0x9e, 0xbd, 0x8d, 0x56, 0x20, 0xbf,
  0x36, 0x8e, 0x95, 0x3e, 0x9a, 0x6e, 0x7a, 0x3e, 0xc9, 0x1d, 0x4b, 0xbe,
  0xa6, 0x62, 0x82, 0x3e, 0x91, 0xd6, 0xab, 0x3d, 0xb7, 0x1d, 0x8b, 0xbe,
  0xc5, 0xf4, 0x20, 0x3e, 0x0c, 0x04, 0x20, 0x3c, 0x3c, 0xbb, 0x52, 0xbd,
  0x0a, 0x53, 0xc7, 0x3c, 0xe5, 0xb7, 0xdd, 0x3c, 0xb7, 0x01, 0x66, 0xbe,
  0xa3, 0x55, 0x5c, 0x3e, 0x85, 0x43, 0x81, 0xbc, 0xc4, 0xa6, 0x39, 0xbe,
  0xb4, 0x71, 0x9d, 0xbe, 0x83, 0x2f, 0xa3, 0x3e, 0xb3, 0x77, 0x0b, 0xbe,
  0x16, 0xbe, 0xa5, 0xbe, 0xc7, 0x30, 0xff, 0x3c, 0x13, 0x0d, 0x31, 0xbe,
  0xbb, 0x34, 0x8b, 0xbe, 0x88, 0xa4, 0x01, 0x3f, 0xed, 0x56, 0xcf, 0xbd,
  0xa4, 0x4c, 0xb6, 0x3d, 0x33, 0xb3, 0x2e, 0x3e, 0xb2, 0x21, 0x05, 0xbe,
  0x58, 0x41, 0x66, 0xbd, 0x99, 0xa0, 0x4b, 0x3e, 0x17, 0xd2, 0x66, 0x3e,
  0x8e, 0x47, 0xf9, 0xbd, 0xf6, 0x21, 0x15, 0xbd, 0x1a, 0xe3, 0x47, 0x3e,
  0x78, 0x8e, 0xd0, 0x3d, 0x61, 0x00, 0x16, 0xbe, 0x5c, 0x7b, 0xcc, 0x3e,
  0x6a, 0x92, 0x05, 0xbe, 0x0d, 0xc8, 0x84, 0x3d, 0xa4, 0x41, 0x4e, 0x3e,
  0x98, 0x57, 0x21, 0xbd, 0x31, 0xc2, 0x4f, 0x3d, 0x44, 0xfa, 0xad, 0x3d,
  0x29, 0x99, 0x92, 0xbd, 0x32, 0x1a, 0x17, 0x3d, 0x8c, 0xf4, 0x39, 0x3c,
  0x1f, 0x48, 0x0d, 0x3e, 0x2c, 0xdc, 0x1e, 0xbb, 0xf6, 0x72, 0xb8, 0x3c,
  0x1e, 0xc1, 0x18, 0x3e, 0x1c, 0x96, 0x83, 0xbe, 0xc3, 0x8a, 0xa5, 0x3d,
  0x39, 0xa2, 0xb2, 0xbd, 0x55, 0x84, 0xf7, 0x3c, 0xba, 0x72, 0x40, 0x3b,
  0x29, 0x0f, 0xcd, 0x3e, 0xfa, 0x5d, 0xdc, 0x3c, 0x34, 0xd8, 0x0e, 0x3d,
  0xfb, 0xa7, 0x81, 0xbc, 0x45, 0xfe, 0x99, 0xbe, 0x08, 0x93, 0x89, 0x3d,
  0x8d, 0x71, 0x5a, 0x3d, 0x0f, 0x7c, 0x2e, 0x3e, 0x3c, 0x4d, 0x29, 0xbe,
  0x30, 0xc5, 0xb5, 0x3b, 0x43, 0xd9, 0x08, 0x3e, 0x76, 0xca, 0x8f, 0xbd,
  0xd0, 0xeb, 0xbd, 0xbd, 0x97, 0x14, 0x88, 0x3d, 0x5c, 0xc4, 0x06, 0x3d,
  0xe8, 0xaf, 0x1a, 0x3d, 0x45, 0xcb, 0x15, 0x3e, 0xcd, 0x9a, 0x87, 0x3d,
  0x8e, 0x4f, 0xb3, 0xbc, 0x56, 0x2b, 0x2d, 0xbd, 0xae, 0x85, 0x13, 0xbe,
  0x4a, 0xe7, 0x87, 0x3c, 0x70, 0xda, 0x28, 0x3e, 0xc9, 0xea, 0x59, 0xbb,
  0x4c, 0xd9, 0x07, 0xbe, 0xff, 0xe3, 0xfc, 0x3d, 0xb6, 0x30, 0xff, 0xbc,
  0x16, 0x10, 0x22, 0xbe, 0x26, 0xb7, 0x0c, 0xbe, 0x93, 0xba, 0x13, 0xbe,
  0x12, 0x7f, 0x62, 0xbe, 0xe9, 0x9e, 0x35, 0xbe, 0xdb, 0x66, 0xdb, 0x3d,
  0xa4, 0x40, 0x27, 0xbe, 0xb6, 0xf8, 0x09, 0xbd, 0x4d, 0x9b, 0xb5, 0xbd,
  0xa5, 0x20, 0x3b, 0xbe, 0xf9, 0x8a, 0x84, 0x3d, 0xb0, 0x62, 0x1a, 0x3e,
  0xf0, 0x30, 0x84, 0x3e, 0x1f, 0xad, 0xb3, 0xbd, 0x48, 0x0f, 0x21, 0x3e,
  0x26, 0x90, 0x8c, 0xbe, 0x9a, 0xb4, 0x3e, 0xbe, 0xbf, 0x66, 0x0c, 0xbd,
  0xa5, 0xe8, 0x8b, 0xbe, 0xd5, 0x7b, 0x50, 0xbe, 0xb2, 0x83, 0x68, 0x3d,
  0xf0, 0xe8, 0xba, 0xbe, 0xd6, 0x8d, 0x92, 0xbe, 0xc4, 0x24, 0x43, 0xbe,
  0x73, 0x29, 0x48, 0xbe, 0x27, 0x47, 0x75, 0xbe, 0x65, 0xef, 0x40, 0xbe,
  0x0c, 0x63, 0xd2, 0xbe, 0x43, 0x70, 0x77, 0xbe, 0x42, 0xe3, 0xb4, 0xbc,
  0x4e, 0xe8, 0xed, 0xbe, 0x04, 0xbd, 0x52, 0xbe, 0xc1, 0xfd, 0x93, 0xbe,
  0x16, 0x15, 0x44, 0xbd, 0xf8, 0xe9, 0x81, 0x3e, 0xcf, 0xeb, 0x9d, 0xbe,
  0xd5, 0x01, 0x40, 0xbc, 0x81, 0xa4, 0x76, 0xbe, 0x0e, 0x74, 0x7b, 0xbe,
  0x5a, 0x74, 0xfd, 0xbd, 0xdd, 0x8f, 0x25, 0xbe, 0xf3, 0xe4, 0x03, 0xbe,
  0x4b, 0xdd, 0xe1, 0xbd, 0x87, 0xfe, 0xc5, 0xbe, 0x48, 0xaf, 0x19, 0xbd,
  0x94, 0x4e, 0xda, 0xbd, 0x86, 0x37, 0xd0, 0xbe, 0x25, 0xbe, 0x19, 0xbe,
  0x13, 0xcd, 0xf2, 0xbd, 0xaa, 0x66, 0xd3, 0xbd, 0xbe, 0xdc, 0xb0, 0x3d,
  0x59, 0x8e, 0xdc, 0xbd, 0xfa, 0xc6, 0x46, 0xbe, 0x3b, 0x1c, 0xa2, 0xbe,
  0x0d, 0x06, 0xb9, 0x3d, 0xfe, 0x7b, 0x90, 0xbe, 0xd6, 0xbe, 0xaa, 0xbe,
  0x85, 0xec, 0x7a, 0xbe, 0x56, 0x2e, 0xf1, 0xbd, 0x73, 0x62, 0x0b, 0xbd,
  0xce, 0xdd, 0x0b, 0xbe, 0x17, 0x8b, 0xa9, 0xbd, 0x03, 0x04, 0xd1, 0xbe,
  0xba, 0x67, 0x02, 0xbe, 0x33, 0xdd, 0x43, 0xbe, 0x1e, 0xd0, 0x3e, 0x3e,
  0xdb, 0xb1, 0x5f, 0xbd, 0x08, 0x84, 0x36, 0xbe, 0x7e, 0xe1, 0xc4, 0xbe,
  0x15, 0x80, 0xcc, 0xba, 0x06, 0x55, 0x28, 0xbe, 0xd9, 0x01, 0xbe, 0xbe,
  0x7e, 0xf4, 0xa5, 0xbe, 0x19, 0x01, 0xf9, 0xbc, 0xa6, 0x5c, 0x1c, 0xbe,
  0x14, 0x3e, 0x3a, 0xbe, 0xcc, 0x52, 0x12, 0x3e, 0x41, 0x1f, 0x21, 0xbe,
  0xfd, 0x8a, 0x03, 0xbf, 0x16, 0xe1, 0x07, 0xbe, 0xe5, 0x6a, 0x0f, 0xbe,
  0x14, 0x73, 0xe8, 0x3c, 0x99, 0xdc, 0x60, 0x3e, 0xf7, 0x58, 0x72, 0xbd,
  0x3a, 0x75, 0xa4, 0xbd, 0x85, 0xb1, 0x2c, 0xbe, 0xdf, 0x99, 0x00, 0xbe,
  0x68, 0xbd, 0x08, 0x3e, 0x01, 0x78, 0xa5, 0xbe, 0x99, 0x7a, 0x3c, 0xbe,
  0x33, 0xe3, 0xee, 0xbd, 0x5d, 0x0c, 0x30, 0xbe, 0x71, 0x11, 0xc1, 0xbd,
  0x26, 0x52, 0x6b, 0x3e, 0x16, 0x1f, 0x04, 0xbf, 0x4b, 0xbd, 0x40, 0x3e,
  0x78, 0x7a, 0xae, 0xbe, 0x04, 0xea, 0xec, 0xbd, 0x1c, 0xeb, 0x39, 0x3e,
  0x15, 0x26, 0x7b, 0x3c, 0x2a, 0xa6, 0xe9, 0xbe, 0x88, 0x5a, 0x2f, 0x3e,
  0x5a, 0x59, 0x33, 0xbe, 0x5e, 0x01, 0xe3, 0x3d, 0xd5, 0xa7, 0xc4, 0x3d,
  0xb6, 0x78, 0x03, 0x3e, 0x78, 0x68, 0xfe, 0xbd, 0xf7, 0xdd, 0xc1, 0xbe,
  0xd6, 0x03, 0x09, 0xbe, 0x36, 0x1c, 0xd5, 0xbc, 0x39, 0x4d, 0xbf, 0xbe,
  0xe5, 0x1b, 0x8d, 0xbc, 0x32, 0x36, 0xd8, 0xbd, 0xaa, 0x48, 0xee, 0x3c,
  0x75, 0x30, 0x42, 0x3d, 0xa3, 0x3a, 0x20, 0x3e, 0x1b, 0x62, 0x85, 0xbe,
  0x8b, 0x1a, 0xa4, 0x3e, 0x6f, 0x4a, 0x2f, 0xbe, 0xef, 0xa0, 0x45, 0x3e,
  0x23, 0x9b, 0xc7, 0x3d, 0x79, 0x78, 0x45, 0x3e, 0x8d, 0x86, 0x56, 0xbd,
  0x81, 0xca, 0x44, 0xbe, 0x68, 0x50, 0x83, 0xbc, 0xa3, 0x84, 0x11, 0xbd,
  0x8c, 0x62, 0x73, 0xbd, 0x58, 0x4c, 0xa3, 0x3c, 0xba, 0xa7, 0xf9, 0x3d,
  0x34, 0x01, 0xd5, 0x3c, 0x23, 0x7d, 0x7e, 0x3d, 0x9d, 0xf0, 0x4f, 0xbd,
  0xc0, 0xa9, 0x20, 0xbc, 0x23, 0x7d, 0xc4, 0x3e, 0x36, 0x1d, 0x64, 0xbc,
  0xfb, 0xd9, 0xd7, 0xbd, 0xec, 0x59, 0x87, 0xbc, 0x88, 0x7e, 0x48, 0x3d,
  0x28, 0xdd, 0xe0, 0xbe, 0x37, 0x34, 0xb1, 0xbc, 0x41, 0x2a, 0x15, 0xbd,
  0x49, 0x79, 0xbe, 0xbc, 0x6d, 0xb5, 0x15, 0xbe, 0x15, 0xb2, 0xca, 0x3d,
  0xbe, 0xb3, 0xf7, 0xbc, 0x42, 0x4c, 0x10, 0xbe, 0xc9, 0x7b, 0x08, 0xbe,
  0xea, 0xe5, 0x23, 0x3c, 0x2a, 0x3e, 0x92, 0xbd, 0xfb, 0x8a, 0x22, 0x3e,
  0xd9, 0x67, 0xf0, 0xbd, 0x8c, 0x45, 0xce, 0xbd, 0x3a, 0xa6, 0x57, 0xbe,
  0x33, 0xe7, 0xf5, 0x3c, 0x3f, 0x6b, 0x0e, 0xbe, 0x49, 0x8f, 0xdb, 0x3c,
  0x42, 0xb4, 0x3a, 0x3e, 0xe5, 0x50, 0x77, 0xbe, 0x4b, 0x78, 0xaf, 0xbe,
  0x39, 0x41, 0x6b, 0xbb, 0x6a, 0xba, 0x92, 0x3d, 0x8a, 0xa4, 0x0e, 0xbe,
  0x37, 0x5b, 0x69, 0x3e, 0x45, 0x8b, 0x84, 0xbc, 0xf8, 0xb0, 0xa6, 0x3d,
  0x38, 0xc8, 0x58, 0x3e, 0x18, 0x7e, 0x78, 0xbd, 0x9a, 0xcc, 0xb6, 0xbd,
  0x3a, 0xf2, 0x8c, 0xbd, 0xc3, 0x9a, 0xda, 0xbd, 0xa1, 0x8a, 0x1e, 0xbe,
  0x4f, 0xd9, 0xcd, 0xbd, 0x2b, 0xbe, 0x62, 0xbd, 0xf6, 0x15, 0x49, 0xbd,
  0x28, 0xa5, 0xdd, 0xbd, 0x8a, 0x4b, 0x51, 0x3e, 0x02, 0xff, 0x7b, 0xbe,
  0x64, 0xad, 0xbb, 0x3d, 0x2f, 0xa9, 0x14, 0xbe, 0x46, 0xb1, 0x2a, 0x3a,
  0x5f, 0x63, 0xfe, 0x3d, 0x64, 0xb6, 0x1f, 0x3e, 0x3a, 0x53, 0xc7, 0x3b,
  0xe7, 0xa0, 0xc1, 0x3c, 0x15, 0x96, 0x00, 0x3d, 0x08, 0x5c, 0x0e, 0xbe,
  0x10, 0x5a, 0x82, 0xbe, 0x85, 0x33, 0x81, 0xbd, 0x34, 0xc6, 0xd3, 0xbc,
  0xcf, 0x21, 0xed, 0xbd, 0x97, 0x31, 0x8b, 0xbd, 0x80, 0x55, 0x04, 0xbe,
  0x32, 0x42, 0x7c, 0xbe, 0x63, 0xbc, 0x0f, 0xbe, 0x96, 0x8f, 0xc3, 0x3c,
  0x4b, 0x99, 0x55, 0xbd, 0xbd, 0x38, 0x97, 0x3d, 0x34, 0xb4, 0x9e, 0xbd,
  0x00, 0x1c, 0xe0, 0xbd, 0xb5, 0xda, 0xca, 0xbd, 0x0f, 0xaf, 0x41, 0x3c,
  0x5f, 0x68, 0x7d, 0xbd, 0xb9, 0xc8, 0xf6, 0xbd, 0x43, 0x6a, 0x4b, 0x3a,
  0x9f, 0x14, 0xd9, 0xbd, 0x60, 0x69, 0xdd, 0xbd, 0x0f, 0x11, 0x41, 0xbe,
  0x44, 0xfa, 0x58, 0xbc, 0x17, 0x37, 0x59, 0x3d, 0xd7, 0x9f, 0xa8, 0xbc,
  0xa4, 0x56, 0xe6, 0x3d, 0x9d, 0x59, 0x91, 0xbc, 0x03, 0xe3, 0x54, 0xbd,
  0x8e, 0xca, 0x84, 0xbd, 0x29, 0xcd, 0x6b, 0xbd, 0xce, 0x45, 0x0b, 0xbe,
  0x80, 0x5c, 0x7a, 0xbd, 0x8e, 0x93, 0x56, 0x3b, 0xf3, 0xdd, 0x82, 0xbe,
  0x21, 0x95, 0xd3, 0xbd, 0x65, 0xe5, 0x40, 0xbe, 0x80, 0x1a, 0x7d, 0x3d,
  0xd6, 0x1a, 0x21, 0x3e, 0xcd, 0xf9, 0x3b, 0x3e, 0x5c, 0x14, 0xc8, 0x3d,
  0xb3, 0xe9, 0x2b, 0xbd, 0x7d, 0x77, 0x44, 0x3e, 0xde, 0xce, 0xf8, 0x3c,
  0x53, 0x96, 0xa2, 0xbb, 0x86, 0xbd, 0x08, 0x3c, 0x2f, 0xa2, 0xb3, 0x3d,
  0xcc, 0x8c, 0x8b, 0x3d, 0xf4, 0x88, 0xca, 0xbd, 0x8e, 0x7b, 0xad, 0xbd,
  0x1a, 0x3f, 0x4c, 0xbe, 0x19, 0xf2, 0xcc, 0x3d, 0x4d, 0xbb, 0xc3, 0xbd,
  0x2a, 0x15, 0x0d, 0xbe, 0x1b, 0x45, 0x9c, 0xbe, 0xa2, 0xea, 0x25, 0xbe,
  0x75, 0x7d, 0xf0, 0xbd, 0x3e, 0xd3, 0x01, 0x3e, 0xe9, 0x34, 0xda, 0xbd,
  0x75, 0x3f, 0x82, 0xbd, 0x5f, 0x1e, 0x83, 0xbd, 0x5b, 0x73, 0x49, 0xbe,
  0x50, 0x4d, 0xfc, 0x3b, 0x9c, 0x7c, 0x80, 0x3d, 0xce, 0xa8, 0x47, 0x3e,
  0xdf, 0xfb, 0x87, 0x3e, 0xa3, 0xf1, 0xe8, 0x3d, 0x7b, 0x1e, 0x37, 0xbe,
  0x62, 0x0c, 0xdb, 0xbc, 0x97, 0xf1, 0x61, 0xbe, 0xdb, 0x1f, 0x4a, 0xbd,
  0xcd, 0xe9, 0x39, 0x3e, 0x93, 0xb8, 0x3b, 0xbd, 0x91, 0x99, 0x66, 0xbd,
  0x0c, 0x8a, 0x15, 0x3e, 0x96, 0xeb, 0xb2, 0x3e, 0x52, 0x02, 0x14, 0xbe,
  0x47, 0xae, 0x06, 0x3e, 0x9d, 0x30, 0xa4, 0xbd, 0xc7, 0x85, 0x3a, 0x3c,
  0x90, 0xe0, 0x2a, 0xba, 0xdc, 0x8a, 0x4f, 0xbd, 0x59, 0x12, 0x5d, 0xbb,
  0x8b, 0xf6, 0x9d, 0xbd, 0x83, 0x8e, 0xbb, 0x3d, 0xc5, 0xc4, 0xf1, 0x3d,
  0xcd, 0x28, 0xaa, 0xbd, 0x3b, 0x63, 0x17, 0x3e, 0xc5, 0x51, 0x0f, 0xbe,
  0x89, 0xc6, 0x59, 0x3e, 0x57, 0x00, 0x40, 0xbe, 0x05, 0x4c, 0x47, 0x3e,
  0xdf, 0xc5, 0x51, 0xbd, 0xe9, 0xed, 0x36, 0xbe, 0x81, 0x03, 0x86, 0x3d,
  0x19, 0xa3, 0x41, 0xbe, 0x4d, 0xaf, 0xe5, 0xbe, 0xcc, 0xfe, 0x0f, 0xbf,
  0xe0, 0xc0, 0xbe, 0xbd, 0x59, 0x35, 0x72, 0xbd, 0x29, 0x25, 0x8c, 0xbd,
  0xef, 0x56, 0x63, 0x3c, 0xe9, 0x19, 0x49, 0x3e, 0x11, 0xf4, 0x40, 0x3e,
  0xb3, 0x32, 0x9d, 0x3c, 0x92, 0x9e, 0x1d, 0x3e, 0x20, 0x87, 0x44, 0x3e,
  0x05, 0x99, 0x99, 0xbe, 0x51, 0x25, 0x03, 0x3e, 0x00, 0x1a, 0xfc, 0xbc,
  0xbc, 0xd8, 0xff, 0x3d, 0xf8, 0x6e, 0xa2, 0xbe, 0x70, 0x26, 0x58, 0xbe,
  0xc5, 0xa4, 0xd6, 0xbe, 0xb9, 0x51, 0x77, 0xbd, 0xa9, 0x27, 0x90, 0xbd,
  0x2a, 0x74, 0x48, 0xbc, 0x54, 0x5f, 0x70, 0xbe, 0xca, 0x13, 0x02, 0x3d,
  0x77, 0x7a, 0xc0, 0x3d, 0x28, 0x65, 0x4b, 0x3e, 0xea, 0x5c, 0x0e, 0x3e,
  0xd4, 0xb3, 0x84, 0x3d, 0xd8, 0x0f, 0xa3, 0xbe, 0xbb, 0x5e, 0x7d, 0xbe,
  0x11, 0xba, 0x86, 0xbe, 0xe5, 0x6e, 0xf3, 0x3d, 0x2f, 0x82, 0x44, 0xbe,
  0xd0, 0x78, 0xe8, 0xbe, 0x83, 0x8b, 0x82, 0xbe, 0xbc, 0x4a, 0x33, 0xbd,
  0x10, 0x20, 0x70, 0xba, 0xd3, 0x15, 0x2a, 0x3e, 0x9f, 0xc8, 0xdf, 0xbd,
  0x57, 0xc9, 0x92, 0x3d, 0x64, 0xb3, 0xe2, 0x3d, 0x80, 0xfa, 0xa2, 0x3c,
  0x6f, 0x6b, 0xbd, 0x3d, 0xf9, 0xf4, 0x77, 0xbd, 0xdf, 0x8a, 0x2a, 0xbe,
  0x5f, 0xd8, 0x89, 0x3d, 0x29, 0xd5, 0x37, 0x3c, 0xce, 0x53, 0x82, 0xbd,
  0xed, 0x4d, 0x13, 0xbe, 0x13, 0x26, 0xd9, 0xbd, 0x76, 0xfd, 0xa1, 0xbe,
  0xb1, 0x2b, 0x81, 0xbd, 0xde, 0xc3, 0x25, 0xbe, 0x73, 0xc6, 0x3b, 0x3e,
  0x66, 0xaa, 0xf6, 0x3c, 0xb1, 0x73, 0xde, 0xbc, 0xd7, 0x73, 0x67, 0xbd,
  0x31, 0x6b, 0x23, 0xbe, 0x50, 0x27, 0x75, 0x3d, 0x63, 0xb5, 0xa2, 0xbd,
  0x00, 0x23, 0x6b, 0xbe, 0x7f, 0xdf, 0x45, 0x3e, 0xb9, 0x6b, 0xc3, 0xbd,
  0xe3, 0x98, 0x90, 0xbe, 0xce, 0x49, 0x96, 0xbe, 0xd5, 0x81, 0x2f, 0xbe,
  0x02, 0x54, 0x5e, 0xbd, 0x2c, 0xd1, 0xd0, 0xbd, 0xad, 0x7a, 0xa3, 0xbe,
  0x3b, 0x4b, 0x84, 0xbe, 0xdc, 0x55, 0xce, 0xbc, 0xfa, 0x6b, 0x4f, 0xbd,
  0xa6, 0x7b, 0x8c, 0xbd, 0x1d, 0x82, 0x72, 0xbb, 0xa2, 0x86, 0x6f, 0xbe,
  0xfa, 0x7d, 0xe3, 0xbd, 0x06, 0x5c, 0xc8, 0xbd, 0xa2, 0x09, 0x18, 0xbe,
  0x7c, 0x28, 0xa6, 0x3e, 0xb9, 0xdc, 0xa4, 0x3a, 0xc9, 0x7f, 0x99, 0xbe,
  0xc5, 0x75, 0xd4, 0xbd, 0x6a, 0xd9, 0x1c, 0x3d, 0x3b, 0x58, 0x12, 0xbe,
  0x6a, 0x3d, 0x95, 0xbe, 0x9c, 0x59, 0x0a, 0xbe, 0xfa, 0x73, 0xbe, 0xbc,
  0x8c, 0x1d, 0xf3, 0xbd, 0x63, 0x08, 0x2a, 0x3e, 0x5f, 0x59, 0x35, 0x3e,
  0xab, 0xc2, 0x72, 0xbe, 0x0a, 0x9d, 0x65, 0x3e, 0x53, 0xf5, 0xc4, 0xbd,
  0x21, 0x6c, 0x71, 0xbe, 0xc8, 0x9a, 0x03, 0x3d, 0x9d, 0x07, 0xce, 0x3e,
  0xc3, 0x95, 0x33, 0xbe, 0x33, 0xe3, 0x6b, 0xbe, 0xc4, 0x0b, 0x76, 0xbe,
  0x45, 0xfc, 0x50, 0xbd, 0x24, 0xb1, 0x95, 0xbe, 0xa4, 0x65, 0x5e, 0xbe,
  0xdf, 0xaa, 0x3f, 0xbe, 0xc7, 0x8a, 0x93, 0xbe, 0x12, 0x05, 0x55, 0xbe,
  0x23, 0x6c, 0xca, 0x3d, 0x9a, 0x11, 0x2c, 0x3e, 0x37, 0x0e, 0x87, 0x3e,
  0x70, 0xcf, 0xfd, 0xbd, 0x2f, 0x88, 0x5b, 0xbe, 0x45, 0xbd, 0x8a, 0x3e,
  0x68, 0x5b, 0x0c, 0x3f, 0x4d, 0x3e, 0x06, 0xbe, 0x50, 0x3e, 0x5c, 0x3d,
  0x71, 0xf4, 0x2e, 0x3d, 0x9c, 0x31, 0x56, 0xbe, 0x6c, 0xf7, 0x0a, 0xbe,
  0x46, 0x07, 0x9e, 0xbd, 0x6f, 0xf4, 0x78, 0xbe, 0xbc, 0xa5, 0x11, 0xbe,
  0x29, 0x2f, 0xb5, 0xbb, 0x66, 0x0c, 0x06, 0x3e, 0xd4, 0xc5, 0x2b, 0x3e,
  0x34, 0xb7, 0x8b, 0x3d, 0xdb, 0xaf, 0x09, 0xbd, 0x07, 0xce, 0x42, 0xbe,
  0xd2, 0x22, 0xac, 0x3d, 0x50, 0x4b, 0xe5, 0x3e, 0xa6, 0x3e, 0x11, 0xbe,
  0xa9, 0xc2, 0x67, 0xbe, 0xdc, 0xcf, 0x2c, 0xbe, 0x53, 0x27, 0xcb, 0xbd,
  0x87, 0x22, 0x40, 0xbe, 0x17, 0x6f, 0x94, 0xbd, 0x63, 0x3f, 0x67, 0xbe,
  0x2f, 0xc1, 0x70, 0xbe, 0x32, 0xe9, 0x09, 0x3b, 0x47, 0x76, 0x08, 0x3b,
  0x81, 0xd4, 0x15, 0x3d, 0xbc, 0xbb, 0x75, 0x3e, 0x1a, 0x73, 0x7a, 0x3d,
  0xf2, 0x52, 0xf7, 0xbd, 0x7b, 0x4f, 0xad, 0x3d, 0x22, 0x2d, 0xe6, 0x3e,
  0x36, 0x01, 0x21, 0xbe, 0x21, 0xfe, 0x7b, 0xbd, 0xe6, 0x18, 0x63, 0xbe,
  0x89, 0x09, 0xcc, 0xbd, 0xc5, 0xbd, 0x24, 0xbe, 0x2d, 0xb2, 0x1b, 0xbd,
  0xb2, 0x26, 0x6e, 0xbe, 0xad, 0x4b, 0xc6, 0xbe, 0xf3, 0xab, 0x9b, 0xbd,
  0x84, 0x6e, 0xad, 0xbd, 0x78, 0xf4, 0xe4, 0x3e, 0xab, 0x18, 0x3a, 0x3e,
  0x49, 0xa2, 0xc9, 0xbd, 0x86, 0x51, 0xa3, 0xbe, 0xdc, 0x84, 0x10, 0x3d,
  0xd0, 0x61, 0x8f, 0x3e, 0x75, 0x6b, 0x0c, 0xbe, 0xd3, 0x44, 0x01, 0xbe,
  0xc9, 0x77, 0xac, 0x3c, 0x19, 0xd0, 0x16, 0xbe, 0x7f, 0x62, 0x2d, 0x3c,
  0x42, 0xc9, 0x80, 0xbd, 0xef, 0xf8, 0x73, 0xbe, 0x3b, 0xd4, 0xaf, 0xbd,
  0x9a, 0xeb, 0x4a, 0x3d, 0x66, 0xc9, 0x29, 0xbe, 0xad, 0x48, 0x89, 0x3e,
  0x06, 0x21, 0x4a, 0x3e, 0x8e, 0x8a, 0x3e, 0x3d, 0xe3, 0x79, 0x0b, 0xbe,
  0xea, 0xdf, 0x1a, 0xbe, 0xb2, 0x99, 0xe6, 0x3e, 0xe2, 0x81, 0x09, 0xbe,
  0x02, 0xc6, 0x33, 0xbe, 0xaf, 0x17, 0x5b, 0xbc, 0x1d, 0xe1, 0x07, 0xbe,
  0x3c, 0x19, 0xd2, 0xbd, 0xb1, 0x1f, 0x1a, 0xbe, 0x36, 0x02, 0x9b, 0xbe,
  0x01, 0x53, 0x89, 0xbe, 0x90, 0x73, 0x82, 0xbe, 0x47, 0xeb, 0xab, 0x3d,
  0x25, 0xea, 0xd4, 0xbd, 0x47, 0x76, 0xdf, 0xbd, 0x11, 0xb8, 0x15, 0xbe,
  0x0c, 0x30, 0xa2, 0xbe, 0x90, 0x51, 0xf1, 0xbd, 0xc1, 0x12, 0xb9, 0x3e,
  0x5c, 0x65, 0x5b, 0xbe, 0xb3, 0x75, 0x5b, 0xbc, 0x78, 0xb4, 0x8d, 0x3d,
  0x9b, 0x51, 0x3a, 0xbe, 0x3e, 0x18, 0x1d, 0xbe, 0x54, 0x47, 0x84, 0xbc,
  0x9f, 0xfc, 0xf1, 0xbd, 0x8f, 0xb1, 0x60, 0xbe, 0xf3, 0x5a, 0xa3, 0xbd,
  0xf0, 0x30, 0xec, 0x3d, 0xf1, 0x53, 0x5b, 0xbe, 0x41, 0xf5, 0xa1, 0x3d,
  0x73, 0x69, 0x8b, 0xbe, 0x27, 0xf5, 0xb6, 0xbc, 0x94, 0x8b, 0x49, 0x3e,
  0x3a, 0xd7, 0x53, 0x3f, 0x8b, 0x60, 0x04, 0xbd, 0xfd, 0x35, 0x30, 0xbd,
  0xbc, 0xd6, 0x30, 0x3e, 0xc6, 0x73, 0xbb, 0xbe, 0x7a, 0x60, 0xd8, 0x3c,
  0xda, 0x10, 0x82, 0xbe, 0x6b, 0x16, 0xe8, 0x3d, 0xf5, 0xd7, 0x31, 0xbe,
  0x5c, 0x9a, 0x18, 0x3e, 0x2d, 0x4a, 0x14, 0xbd, 0xa3, 0xb9, 0xfb, 0x3d,
  0x00, 0xfc, 0x74, 0xbd, 0x69, 0x10, 0xda, 0x3d, 0xaf, 0x37, 0x60, 0xbe,
  0x2a, 0x60, 0xed, 0x3d, 0xc4, 0xbf, 0x90, 0x3f, 0x32, 0xe1, 0xd4, 0x3d,
  0xd1, 0x01, 0x87, 0xbe, 0x24, 0xc0, 0x24, 0x3d, 0x01, 0x31, 0xd2, 0xbe,
  0x15, 0x9e, 0xaa, 0x3c, 0x00, 0x0d, 0x06, 0x3e, 0x4e, 0x56, 0x36, 0xbe,
  0x64, 0xbd, 0xd2, 0xbe, 0x64, 0xe2, 0x65, 0xbe, 0x06, 0xb5, 0xaa, 0x3b,
  0xcd, 0xf0, 0xa1, 0x3d, 0xcd, 0xf4, 0xb3, 0x3e, 0x2f, 0x9e, 0xb3, 0x3b,
  0x47, 0xd4, 0x68, 0xbd, 0x38, 0x73, 0xc8, 0x3c, 0x9a, 0x3f, 0xe4, 0x3e,
  0x67, 0xd0, 0x17, 0xbe, 0xcd, 0x00, 0x3c, 0xbe, 0xed, 0x03, 0xf8, 0x3d,
  0xaa, 0x24, 0x95, 0xbe, 0x87, 0x5d, 0xc2, 0xbc, 0xf1, 0x7d, 0xb9, 0x3d,
  0x04, 0x7e, 0x8d, 0x3d, 0xe0, 0x3a, 0x7b, 0xbe, 0x9b, 0xf3, 0x4f, 0xbe,
  0xc8, 0x0f, 0xb2, 0x3b, 0xa4, 0xef, 0x5e, 0xbd, 0xb6, 0x51, 0x13, 0x3e,
  0xa0, 0x8e, 0xb6, 0xbd, 0xbe, 0x4e, 0x0e, 0xbe, 0x68, 0x84, 0x4c, 0xbe,
  0x8f, 0x8b, 0xa3, 0x3f, 0xec, 0xbf, 0x1e, 0xbe, 0x42, 0x78, 0x51, 0xbe,
  0xc3, 0x8b, 0xe9, 0xbd, 0x69, 0x03, 0x03, 0xbe, 0x79, 0xba, 0x11, 0x3d,
  0x5d, 0xbb, 0xc4, 0xbb, 0x8c, 0xce, 0x03, 0xbd, 0x93, 0x63, 0xab, 0xbd,
  0x4a, 0x2a, 0x19, 0xbe, 0xe0, 0x78, 0xf9, 0x3d, 0x8e, 0xd4, 0x83, 0x3d,
  0x2d, 0xdd, 0x70, 0x3e, 0xf3, 0x11, 0x4f, 0x3d, 0x43, 0x00, 0x23, 0xbe,
  0xc2, 0x54, 0x6c, 0xbe, 0x08, 0x0f, 0x3c, 0x3f, 0x6b, 0x92, 0x7a, 0x3d,
  0xcb, 0x64, 0x56, 0xbe, 0x23, 0x06, 0x85, 0x3c, 0x14, 0xe1, 0xb6, 0xbe,
  0x07, 0x94, 0x0d, 0xbe, 0x5b, 0x71, 0xed, 0xbd, 0x8c, 0x70, 0x57, 0xbe,
  0xa9, 0xb9, 0xcc, 0xbe, 0x1b, 0xd6, 0x11, 0xbd, 0x8d, 0x35, 0x59, 0x3d,
  0xb4, 0xaf, 0x43, 0x3e, 0xee, 0xd8, 0xa6, 0x3d, 0xa8, 0x3c, 0x80, 0xbc,
  0x26, 0x1d, 0x03, 0x3e, 0x53, 0xe7, 0x0d, 0x3e, 0x8a, 0x27, 0x36, 0x3f,
  0x0c, 0xe1, 0x4f, 0xbe, 0x10, 0x93, 0xa3, 0xbd, 0xa6, 0x37, 0x7b, 0xbe,
  0x60, 0x00, 0x5f, 0xbe, 0xb5, 0x25, 0xaf, 0xbd, 0x4e, 0x60, 0xb3, 0xbe,
  0x9e, 0x5b, 0x8b, 0xbe, 0xbf, 0x5b, 0x3e, 0xbe, 0xcf, 0xd7, 0x8c, 0xbe,
  0x39, 0x14, 0x3f, 0xbd, 0x86, 0x58, 0xc5, 0xbd, 0xdf, 0x57, 0x8b, 0x3d,
  0xb5, 0xe8, 0x11, 0xbe, 0x8f, 0xf8, 0x92, 0xbe, 0xca, 0x69, 0x5a, 0xbd,
  0x7d, 0x92, 0x0b, 0x3f, 0x2e, 0xcf, 0xb3, 0x3b, 0xbd, 0x45, 0xd2, 0xbe,
  0x3b, 0xa2, 0x91, 0xbe, 0xfd, 0x84, 0xaa, 0xbd, 0x1b, 0x72, 0x05, 0xbf,
  0x2d, 0x00, 0x96, 0xbe, 0xdd, 0x74, 0x99, 0x3c, 0xe9, 0x76, 0x2e, 0xbf,
  0x75, 0xb0, 0x4b, 0xbe, 0x9e, 0xef, 0xad, 0xbe, 0xf8, 0xe4, 0x86, 0xbc,
  0xa5, 0x73, 0x03, 0xbe, 0x4e, 0x13, 0x48, 0xbf, 0x25, 0x63, 0x9d, 0xbd,
  0x1b, 0x47, 0x30, 0xbe, 0x3a, 0x53, 0x1e, 0x3c, 0xe9, 0xa7, 0x76, 0x3b,
  0x76, 0x53, 0x6c, 0xbe, 0x3f, 0x70, 0xbc, 0x3d, 0xfd, 0x38, 0x7d, 0xbd,
  0x54, 0x91, 0x3d, 0xbe, 0x0e, 0xa0, 0x1b, 0xbd, 0xcc, 0x65, 0xb1, 0xbe,
  0x28, 0xa7, 0x41, 0xbf, 0xde, 0xeb, 0xbc, 0xbe, 0xff, 0xd4, 0xcb, 0xbe,
  0x64, 0xed, 0x43, 0xbe, 0x3d, 0x04, 0x39, 0xbe, 0xe6, 0x76, 0x1f, 0xbd,
  0xfc, 0x10, 0x2d, 0xbd, 0xee, 0x18, 0x92, 0xbe, 0x69, 0x5c, 0x8f, 0x3e,
  0x62, 0x45, 0x89, 0xbe, 0x26, 0x72, 0xa0, 0xbe, 0x92, 0x6f, 0x94, 0xbd,
  0x42, 0xed, 0xa6, 0xbd, 0x20, 0x76, 0x3b, 0x3d, 0xb5, 0x88, 0x8e, 0xbd,
  0x4b, 0xfb, 0x86, 0xbe, 0xcb, 0x28, 0x1f, 0xbf, 0xdc, 0x81, 0x61, 0xbe,
  0x23, 0x12, 0xb8, 0xbe, 0xaf, 0x68, 0x99, 0xbe, 0x23, 0xfa, 0x57, 0xbd,
  0x22, 0x18, 0x1b, 0x3d, 0x37, 0xda, 0xa6, 0xbd, 0x00, 0x96, 0x9f, 0xbd,
  0xaf, 0x87, 0x85, 0x3e, 0xb7, 0xb0, 0x16, 0xbe, 0xc0, 0xe5, 0xdf, 0xbe,
  0x7b, 0x17, 0x53, 0xbe, 0x5d, 0xc1, 0xad, 0xbd, 0xe7, 0xd8, 0xc4, 0xbe,
  0x65, 0x0c, 0xcf, 0x3d, 0x22, 0xd0, 0x00, 0xbe, 0xeb, 0xa5, 0x09, 0xbf,
  0xd5, 0x3e, 0xc9, 0xbe, 0xf0, 0xba, 0x00, 0xbf, 0xa4, 0xf5, 0x88, 0xbe,
  0x81, 0x66, 0x95, 0x3c, 0xe7, 0x86, 0x4a, 0xbe, 0x45, 0x33, 0x1b, 0xbe,
  0x8e, 0xbe, 0x78, 0xbd, 0xaa, 0x1b, 0x48, 0xbe, 0xb0, 0x04, 0xa3, 0x3d,
  0x71, 0xfd, 0x58, 0xbd, 0x6f, 0xed, 0x4e, 0x3e, 0xcb, 0xf0, 0x8e, 0xbd,
  0x43, 0xee, 0xe5, 0xbe, 0x64, 0x28, 0x93, 0xbe, 0x29, 0x4b, 0x87, 0x3e,
  0xd0, 0xdb, 0x4e, 0xbf, 0xe3, 0xeb, 0x32, 0x3c, 0xdb, 0xfe, 0xb4, 0xbe,
  0x14, 0x8e, 0x51, 0xbe, 0x8a, 0x46, 0xba, 0x3d, 0x06, 0x60, 0x25, 0x3e,
  0x7b, 0x50, 0xe4, 0xbe, 0x5d, 0x28, 0x41, 0x3e, 0x64, 0x1f, 0x9b, 0x3e,
  0x4b, 0x67, 0x74, 0x3d, 0x90, 0xf8, 0xb5, 0x3d, 0x50, 0x99, 0x3b, 0x3e,
  0xac, 0x17, 0x62, 0x3c, 0x65, 0xf4, 0x7f, 0xbe, 0x71, 0x9b, 0x14, 0xbe,
  0x18, 0x0b, 0x04, 0x3e, 0x19, 0x76, 0x9a, 0xbd, 0xe6, 0x23, 0xca, 0x3b,
  0x70, 0xb0, 0x1c, 0xbe, 0xc8, 0x95, 0xbf, 0xbb, 0x3d, 0x44, 0x05, 0xbd,
  0x8f, 0x78, 0xb5, 0x3d, 0x59, 0xac, 0xc3, 0xbd, 0x75, 0x7d, 0x14, 0x3e,
  0xab, 0x06, 0xc8, 0x3d, 0x02, 0x3e, 0x6e, 0x3e, 0x76, 0x7c, 0x3d, 0x3e,
  0x5a, 0xc8, 0x95, 0xbc, 0x98, 0xc1, 0x36, 0x3d, 0x43, 0x99, 0x0a, 0xbe,
  0x81, 0x9a, 0x1a, 0xbe, 0x33, 0xe2, 0xb5, 0x3d, 0x0a, 0x3b, 0x99, 0x3d,
  0xc5, 0xf7, 0x27, 0xbe, 0x8b, 0x41, 0xd7, 0xbd, 0xc8, 0xe8, 0x67, 0x3e,
  0x84, 0x47, 0xb9, 0x3d, 0xfe, 0xa5, 0x00, 0x3e, 0x50, 0x20, 0x7d, 0xbc,
  0x27, 0xc3, 0x0f, 0x3e, 0xde, 0xb4, 0xe8, 0xbd, 0xe6, 0x7d, 0xec, 0xbc,
  0x05, 0xf7, 0xbf, 0x3d, 0x76, 0x77, 0x91, 0xbd, 0x48, 0xa9, 0x60, 0xbe,
  0x8e, 0x71, 0xd3, 0xba, 0x3a, 0xd5, 0xf6, 0x3d, 0xd3, 0x23, 0xe6, 0xbd,
  0x4d, 0xc1, 0x4b, 0xbe, 0x78, 0xff, 0x88, 0x3e, 0x31, 0xe9, 0x24, 0x3f,
  0x66, 0xcd, 0x13, 0x3e, 0xfc, 0x1b, 0x66, 0x3e, 0x00, 0x67, 0x84, 0xbc,
  0xe8, 0xb4, 0xa4, 0xbd, 0x07, 0xa3, 0xa7, 0x3e, 0xdf, 0x32, 0x40, 0xbf,
  0x11, 0x8a, 0x2b, 0x3e, 0x0b, 0xd2, 0xcb, 0x3e, 0x45, 0xc2, 0xce, 0x3d,
  0x66, 0xbb, 0x36, 0xbe, 0xab, 0xa9, 0x3d, 0xbe, 0xdd, 0x3b, 0xb3, 0xbd,
  0x31, 0x98, 0x4e, 0xbe, 0xc6, 0xe6, 0xd6, 0xbe, 0xd1, 0x75, 0x6d, 0x3e,
  0xbf, 0x2d, 0x54, 0x3e, 0x5f, 0x89, 0x84, 0xbe, 0x05, 0x75, 0xa8, 0x3e,
  0xa6, 0xaa, 0xe7, 0x3d, 0xd8, 0x91, 0xb7, 0xbd, 0x62, 0x16, 0x48, 0x3e,
  0x37, 0x04, 0xc2, 0xbe, 0xbe, 0x47, 0x43, 0x3e, 0x2d, 0xb3, 0xe9, 0x3e,
  0x8e, 0x00, 0x95, 0x3e, 0xde, 0x08, 0xc6, 0xbd, 0x62, 0xa6, 0xcb, 0xbe,
  0x5a, 0xd1, 0xa6, 0x3b, 0xbf, 0xde, 0x0e, 0xbe, 0x3b, 0x71, 0x94, 0xbe,
  0x9c, 0xe6, 0x96, 0x3d, 0xd9, 0x44, 0x2f, 0x3e, 0xf0, 0x9d, 0x38, 0xbe,
  0x09, 0xf3, 0x87, 0x3e, 0x04, 0x74, 0xde, 0x3d, 0xe7, 0x78, 0xe3, 0x3d,
  0xdc, 0xcf, 0x55, 0xbe, 0x0b, 0xa0, 0xc4, 0xbe, 0xb5, 0xe0, 0x19, 0x3e,
  0x61, 0x8d, 0xc4, 0x3e, 0x19, 0x3b, 0x1d, 0x3e, 0x72, 0x8b, 0xa3, 0xbd,
  0x38, 0xd7, 0xf3, 0xbd, 0xd7, 0xd2, 0x16, 0xbe, 0xb1, 0x3b, 0x3a, 0xbd,
  0x3e, 0x01, 0x05, 0xbf, 0x58, 0x7f, 0x15, 0x3c, 0x2c, 0x24, 0x9b, 0x3d,
  0x76, 0x3d, 0xd1, 0x3d, 0xfe, 0xe8, 0x63, 0x3e, 0x63, 0x66, 0x3a, 0x3e,
  0x21, 0x6e, 0xad, 0x3e, 0x33, 0xc0, 0xb3, 0xbc, 0x6f, 0x6e, 0x22, 0xbf,
  0x71, 0xb3, 0x06, 0xbd, 0xdc, 0x82, 0x80, 0x3e, 0x5c, 0x0e, 0x49, 0xbd,
  0xa1, 0x01, 0xc4, 0xbd, 0x93, 0x44, 0xa4, 0x3c, 0x68, 0x97, 0x86, 0x3e,
  0x07, 0x51, 0xac, 0x3c, 0xac, 0x09, 0xce, 0xbe, 0x2c, 0x97, 0xc2, 0x3d,
  0xd0, 0x77, 0x33, 0x3e, 0xb7, 0x86, 0x9e, 0xbe, 0x29, 0xfb, 0x02, 0x3f,
  0x2f, 0xb5, 0x93, 0x3d, 0x7f, 0x2a, 0xec, 0x3c, 0x34, 0x7c, 0xcb, 0x3d,
  0x2b, 0x34, 0xd1, 0xbe, 0xf6, 0x0b, 0x5a, 0xbd, 0xc2, 0x44, 0x94, 0x3e,
  0x15, 0x0d, 0xd1, 0xbc, 0xe8, 0x1a, 0xf3, 0xbd, 0x79, 0xe2, 0xea, 0xbe,
  0xd2, 0xde, 0xab, 0x3e, 0xe7, 0x3c, 0x3c, 0xbe, 0x92, 0xdb, 0x76, 0xbe,
  0xee, 0x37, 0x08, 0x3d, 0x09, 0xf4, 0x7d, 0x3e, 0x8d, 0xc0, 0x83, 0xbe,
  0xbd, 0x72, 0xd5, 0x3e, 0xec, 0x3d, 0x53, 0xbc, 0x13, 0x68, 0x2e, 0x3e,
  0xa1, 0x94, 0x71, 0x3e, 0xd8, 0xf9, 0x05, 0xbf, 0xa4, 0x67, 0xb4, 0xbd,
  0x39, 0x64, 0xe0, 0x3d, 0x88, 0xe8, 0xa3, 0xbd, 0xe8, 0x26, 0x2a, 0xbe,
  0xef, 0x8f, 0x24, 0xbf, 0x1f, 0x3d, 0x6e, 0xbe, 0x93, 0xe1, 0x98, 0xbe,
  0x3b, 0x57, 0x62, 0xbf, 0xa4, 0x70, 0x5f, 0x3e, 0x0a, 0x3d, 0x00, 0x3f,
  0xe1, 0xf6, 0x0b, 0xbf, 0xb5, 0x3f, 0x80, 0x3e, 0x43, 0x74, 0xcb, 0xbd,
  0xfa, 0x09, 0x45, 0xbe, 0x08, 0xa0, 0xe9, 0x3d, 0xe3, 0x7f, 0x37, 0xbe,
  0x56, 0x08, 0x55, 0x3d, 0x1e, 0x15, 0xd8, 0x3d, 0x06, 0xca, 0x6a, 0x3e,
  0xd4, 0x62, 0x81, 0x3c, 0x3e, 0x68, 0xc2, 0xbe, 0xac, 0x5c, 0xa1, 0xbd,
  0xa4, 0x5b, 0x7a, 0x3d, 0x6f, 0xcf, 0x7a, 0xbe, 0xbf, 0x16, 0x30, 0xbe,
  0x3c, 0x12, 0x06, 0xbe, 0x64, 0xca, 0xea, 0x3b, 0x94, 0x4f, 0x40, 0x3d,
  0x37, 0x7e, 0x1c, 0x3e, 0xb2, 0x46, 0x8a, 0xbe, 0xa2, 0x0b, 0x94, 0xbc,
  0x3f, 0x64, 0xf0, 0x3e, 0x14, 0xe0, 0x8b, 0xbd, 0x80, 0xd8, 0x94, 0xbd,
  0x8a, 0xf9, 0x83, 0xbe, 0x63, 0x1c, 0x8d, 0xbc, 0x44, 0x4d, 0x0a, 0xbd,
  0x75, 0x18, 0x0c, 0x3e, 0x83, 0x73, 0x2e, 0x3e, 0x1c, 0x5f, 0x2e, 0xbd,
  0x5f, 0x97, 0x85, 0xbd, 0x9f, 0xd7, 0x14, 0x3e, 0xc4, 0x09, 0x04, 0x3e,
  0x1b, 0xaa, 0x2a, 0x3e, 0x5d, 0x98, 0x94, 0x3c, 0xad, 0xdd, 0x58, 0xbe,
  0xec, 0x83, 0x26, 0x3e, 0x86, 0x6f, 0x8a, 0x3e, 0xc4, 0xf6, 0xb2, 0xbe,
  0x74, 0x28, 0x88, 0xbd, 0x51, 0x58, 0x8b, 0xbd, 0x9a, 0xaa, 0x3d, 0x3c,
  0x18, 0x09, 0x12, 0xbe, 0xa6, 0xa9, 0x2b, 0xbc, 0xfe, 0xa2, 0xc1, 0x3d,
  0xfa, 0x3b, 0x3d, 0x3d, 0xc0, 0xaa, 0x0e, 0xbe, 0x63, 0xfc, 0x5b, 0x3e,
  0x09, 0xb9, 0x5f, 0x3e, 0xe7, 0x9b, 0x84, 0x3e, 0x45, 0xee, 0xc7, 0x3c,
  0x31, 0x02, 0xf3, 0xbd, 0xc0, 0x28, 0xd5, 0x3d, 0xc9, 0x28, 0xc9, 0x3e,
  0x6b, 0x22, 0x64, 0xbe, 0xc2, 0xe6, 0x38, 0xbd, 0xf7, 0xbb, 0x1e, 0x3e,
  0x28, 0xa3, 0x95, 0x3c, 0x72, 0x99, 0x93, 0xbd, 0xa4, 0xe8, 0xaa, 0x3e,
  0x4c, 0x5a, 0x4c, 0x3d, 0x3d, 0xf4, 0xc0, 0xbc, 0x27, 0x82, 0x53, 0xbe,
  0xfd, 0x63, 0x70, 0xbe, 0x48, 0x75, 0xd7, 0x3c, 0x73, 0xec, 0xb6, 0x3e,
  0x5e, 0xc4, 0x0c, 0x3e, 0xe9, 0x65, 0x31, 0xbe, 0xa7, 0xe6, 0x60, 0x3d,
  0xc1, 0x92, 0x3c, 0x3e, 0xaf, 0x41, 0x14, 0x3d, 0x7b, 0x6e, 0x33, 0xbd,
  0x70, 0xa9, 0xa9, 0xbd, 0x92, 0xef, 0x9c, 0x3c, 0x0d, 0x5d, 0x84, 0xbe,
  0x23, 0x1b, 0xab, 0xbd, 0xc0, 0xed, 0x7f, 0x3e, 0x64, 0xf2, 0xbc, 0xbb,
  0x3e, 0x38, 0x48, 0xbd, 0xcc, 0x25, 0x80, 0xbd, 0x8d, 0x90, 0x51, 0xbe,
  0x8b, 0xc7, 0x46, 0x3e, 0x69, 0xb1, 0xef, 0xbd, 0xb0, 0xc2, 0x86, 0xbe,
  0x3f, 0x06, 0xd8, 0x3e, 0xcc, 0x57, 0x37, 0xbc, 0xdd, 0xf5, 0x98, 0x3d,
  0xdf, 0xd6, 0xd8, 0x3d, 0x93, 0xbf, 0xc0, 0x3d, 0x4f, 0x11, 0xe1, 0xbb,
  0x8c, 0x5d, 0xae, 0xbe, 0x56, 0x7e, 0x9c, 0x3d, 0x91, 0x32, 0xd4, 0x3d,
  0x40, 0xa1, 0x18, 0x3c, 0x5a, 0xad, 0x19, 0xbd, 0x64, 0x04, 0x70, 0xbd,
  0xaa, 0x20, 0xa7, 0x3b, 0xee, 0xc3, 0x22, 0x3f, 0xff, 0x8f, 0x02, 0x3e,
  0xb6, 0xff, 0x72, 0xbe, 0x0b, 0x15, 0x92, 0x3e, 0xc6, 0xfa, 0xc0, 0xbd,
  0xf8, 0x97, 0x0d, 0x3e, 0x4e, 0x80, 0xf0, 0x3c, 0x40, 0xdd, 0xaa, 0x3c,
  0xa0, 0x27, 0x60, 0x3c, 0xb4, 0x84, 0xca, 0xbe, 0x1b, 0xe3, 0x55, 0xbe,
  0x5a, 0x95, 0xd9, 0x3d, 0xad, 0xaa, 0x01, 0xbd, 0x26, 0x8d, 0x62, 0xbe,
  0xe6, 0xe1, 0x3c, 0x3e, 0x02, 0xd6, 0xb2, 0x3d, 0x60, 0xc2, 0xf5, 0x3c,
  0x40, 0x0d, 0x06, 0x3d, 0x1b, 0xa9, 0x73, 0xbc, 0x76, 0xb7, 0x8f, 0x3e,
  0xf8, 0x42, 0x4a, 0x3e, 0xa8, 0xa3, 0x59, 0xbe, 0x80, 0xb9, 0x8c, 0xbc,
  0x14, 0xd4, 0xb5, 0xbe, 0xc8, 0x73, 0xc3, 0x3c, 0x1f, 0x04, 0x66, 0xbc,
  0xc3, 0xfe, 0xb0, 0xbc, 0x7e, 0x7d, 0x08, 0xbf, 0x50, 0xfd, 0x4f, 0x3e,
  0xd5, 0x21, 0xab, 0xbd, 0x8f, 0x6c, 0x99, 0x3e, 0x1b, 0x4f, 0x83, 0x3d,
  0xfb, 0x9d, 0xae, 0x3c, 0xd8, 0x8b, 0x2e, 0xbd, 0xb9, 0x56, 0x90, 0xbe,
  0xc9, 0x98, 0xcf, 0x3d, 0xc7, 0xde, 0x49, 0xbf, 0xa3, 0xa6, 0xf8, 0xbd,
  0xf8, 0x63, 0xc3, 0x3e, 0x8c, 0xf7, 0x8a, 0x3c, 0xb9, 0xd2, 0x17, 0x3d,
  0xc3, 0x7d, 0x50, 0xbe, 0xfd, 0x0d, 0x3e, 0x3e, 0x36, 0x32, 0x9c, 0xbe,
  0xb2, 0xc9, 0xaa, 0x3d, 0xcc, 0xd3, 0x83, 0xbd, 0x39, 0x92, 0x14, 0x3f,
  0xaf, 0x7f, 0x62, 0x3e, 0xcb, 0x35, 0x37, 0x3e, 0x3d, 0xe5, 0x98, 0xbd,
  0x35, 0xac, 0x09, 0xbf, 0x5f, 0xe9, 0xc6, 0x3d, 0x82, 0xa0, 0x72, 0xbe,
  0x3f, 0x83, 0x70, 0xbe, 0xff, 0x40, 0x6e, 0x3e, 0x64, 0x4b, 0xc9, 0x3d,
  0x8a, 0xc9, 0x81, 0x3d, 0x86, 0xdf, 0xdc, 0xbe, 0x9c, 0x04, 0x4e, 0x3d,
  0xfc, 0x3a, 0xb9, 0xbd, 0xe6, 0x1a, 0xf6, 0x3c, 0x23, 0x11, 0x0c, 0xbe,
  0x97, 0xab, 0x9e, 0x3e, 0x73, 0x53, 0x15, 0x3e, 0x3a, 0x10, 0x17, 0x3e,
  0xb1, 0x3a, 0x2d, 0x3e, 0x1e, 0x01, 0xba, 0xbb, 0xb9, 0x8f, 0x35, 0x3e,
  0x4b, 0x9b, 0xa2, 0xbe, 0xd9, 0xfe, 0xe4, 0xbd, 0x04, 0xf4, 0x97, 0x3e,
  0x09, 0x43, 0x16, 0x3d, 0x33, 0xba, 0x95, 0x3c, 0x14, 0xaf, 0xdb, 0xbd,
  0x52, 0x95, 0x57, 0x3d, 0x1e, 0x72, 0x41, 0x3d, 0x30, 0x28, 0x40, 0xbd,
  0x5d, 0x18, 0x8d, 0xbd, 0xe4, 0x95, 0xda, 0x3e, 0xab, 0x2c, 0x20, 0x3d,
  0x27, 0x74, 0x4b, 0x3e, 0x09, 0x78, 0x28, 0x3e, 0x5b, 0x88, 0x4f, 0xbb,
  0x42, 0x20, 0xbb, 0x3d, 0x92, 0xd3, 0xcb, 0xbe, 0x95, 0xa4, 0x08, 0xbe,
  0x14, 0x24, 0xac, 0x3e, 0xc7, 0xba, 0x0e, 0x3c, 0x90, 0xef, 0xf7, 0x3c,
  0xab, 0xb1, 0x38, 0xbe, 0x3d, 0xb3, 0xd5, 0x3d, 0x45, 0xc1, 0x3e, 0xbe,
  0x39, 0xb7, 0x9c, 0xbc, 0xdf, 0x75, 0xfc, 0xbd, 0x7d, 0x61, 0x98, 0x3e,
  0x27, 0x52, 0x12, 0x3e, 0xf0, 0x95, 0x0d, 0x3e, 0xa3, 0xb5, 0x3a, 0x3d,
  0xc9, 0x0d, 0x0a, 0xbe, 0x5c, 0x01, 0x45, 0x3c, 0x5d, 0x44, 0x77, 0xbe,
  0x39, 0x18, 0xb4, 0xbe, 0x65, 0xee, 0xb1, 0x3c, 0xf4, 0xe2, 0x79, 0xbd,
  0xb7, 0x55, 0x42, 0x3d, 0x58, 0x2f, 0xce, 0xbe, 0x2a, 0x06, 0x18, 0x3d,
  0xee, 0x17, 0x8e, 0xbd, 0x20, 0xae, 0x46, 0xbd, 0x33, 0xb5, 0x6c, 0x3e,
  0xe0, 0xdf, 0x8f, 0x3e, 0xc7, 0x11, 0x12, 0x3e, 0x17, 0xd7, 0x99, 0x3d,
  0x4a, 0xde, 0xa8, 0xbc, 0xc2, 0xfd, 0xa4, 0xbe, 0xdc, 0xb3, 0x42, 0x3d,
  0x2d, 0x08, 0x15, 0xbf, 0xe0, 0x8f, 0x48, 0xbe, 0x74, 0xd0, 0x04, 0xbd,
  0x3b, 0x1f, 0x46, 0xbc, 0xcb, 0xa0, 0x15, 0x3d, 0x59, 0x3c, 0x98, 0xbe,
  0x7d, 0x5c, 0x9c, 0xbd, 0x18, 0x58, 0x21, 0xbe, 0x5d, 0x7b, 0x57, 0xbd,
  0xae, 0x36, 0x4a, 0x3d, 0x77, 0x41, 0x57, 0x3e, 0x7e, 0x7e, 0x84, 0xbd,
  0x78, 0x34, 0x07, 0x3d, 0xf9, 0x08, 0xdb, 0x3c, 0x7b, 0x11, 0x12, 0xbd,
  0x66, 0x86, 0x1b, 0x3e, 0x4e, 0x20, 0xa0, 0x3e, 0x6a, 0x8e, 0x1b, 0x3d,
  0x8b, 0x96, 0x5e, 0xbe, 0x1c, 0xa3, 0x16, 0xbe, 0x78, 0xd0, 0x15, 0xbe,
  0xe6, 0x5c, 0x1a, 0x3e, 0x1b, 0x6c, 0x3f, 0x3d, 0xb4, 0xa8, 0xaa, 0x3e,
  0x9f, 0x76, 0xc3, 0x3d, 0xc0, 0x4a, 0xd1, 0xbe, 0xa3, 0xce, 0x56, 0x3e,
  0xb1, 0xde, 0x54, 0xbd, 0x25, 0x1d, 0x0e, 0xbf, 0xe3, 0x97, 0x99, 0xbe,
  0xc2, 0x50, 0x9a, 0x3e, 0x3e, 0x6f, 0xa5, 0xbd, 0x7b, 0x00, 0x23, 0xbe,
  0x45, 0x0d, 0x78, 0x3e, 0x73, 0x73, 0xdd, 0xbe, 0xf5, 0x96, 0x71, 0xbe,
  0xde, 0xb0, 0x6b, 0x3b, 0xb5, 0x5e, 0xbd, 0xbd, 0xca, 0x31, 0xc4, 0xbd,
  0x63, 0x7c, 0x02, 0x3e, 0x25, 0xd1, 0x96, 0x3d, 0x60, 0x5d, 0x6e, 0xbe,
  0xb0, 0xe3, 0x08, 0x3e, 0x72, 0x58, 0x47, 0x3d, 0x4c, 0x30, 0xf5, 0xbe,
  0xff, 0x9e, 0x17, 0xbe, 0x55, 0x74, 0x89, 0x3e, 0xe8, 0xf8, 0x1d, 0xbe,
  0xa4, 0x51, 0x23, 0x3e, 0xbe, 0x06, 0x72, 0x3e, 0xa9, 0x2f, 0x93, 0xbe,
  0x9f, 0x39, 0xc0, 0x3d, 0x67, 0x76, 0x20, 0xbd, 0xdd, 0x76, 0x0b, 0xbe,
  0x49, 0xe1, 0x6f, 0xbd, 0x29, 0xf1, 0x7b, 0x3e, 0x29, 0x19, 0xb8, 0xbc,
  0x31, 0x1d, 0xa9, 0xbe, 0x73, 0x6f, 0x8e, 0xbd, 0x5a, 0xed, 0x48, 0xbd,
  0xbb, 0x4f, 0x71, 0xbe, 0x6a, 0x58, 0xa0, 0x3e, 0x0b, 0x16, 0x9a, 0x3e,
  0xb2, 0x65, 0x50, 0x3d, 0xb6, 0xa4, 0x1d, 0xbe, 0xc9, 0x1b, 0x96, 0x3e,
  0x3a, 0x1b, 0x58, 0xbe, 0xe1, 0x9e, 0xbc, 0x3b, 0xe7, 0x84, 0xc4, 0x3b,
  0x98, 0xee, 0x92, 0xbd, 0xd1, 0x9a, 0x5c, 0xbe, 0x81, 0x79, 0xb9, 0x3e,
  0x55, 0x49, 0x7e, 0xbc, 0x9d, 0x42, 0x28, 0xbd, 0xcd, 0x60, 0x01, 0x3e,
  0x03, 0xaa, 0x69, 0x3c, 0xcb, 0x19, 0x6e, 0xbe, 0xa3, 0x41, 0xcb, 0x3e,
  0x71, 0xc4, 0x1b, 0x3e, 0x19, 0x47, 0x23, 0xbe, 0xed, 0xba, 0x5c, 0x3d,
  0xc2, 0x9b, 0x22, 0x3e, 0x6c, 0xe5, 0xfa, 0xbe, 0xc1, 0xd9, 0xe1, 0xbe,
  0x12, 0x74, 0x3a, 0x3c, 0xec, 0x25, 0x1b, 0xbd, 0x92, 0xb0, 0x2e, 0xbd,
  0x40, 0x02, 0xe7, 0x3d, 0x8b, 0xf3, 0x14, 0x3d, 0x11, 0x5e, 0x01, 0xbe,
  0xaf, 0xa6, 0x99, 0x3e, 0x6e, 0xe4, 0xb6, 0x3c, 0x39, 0xc1, 0xa4, 0xbe,
  0x59, 0x4b, 0x90, 0x3e, 0xeb, 0xda, 0xfa, 0x3e, 0xde, 0x1c, 0x00, 0xbf,
  0x50, 0xeb, 0x30, 0xbe, 0xf8, 0x8a, 0x50, 0x3d, 0x16, 0xc2, 0xb6, 0xbe,
  0x6a, 0x07, 0xb5, 0xbe, 0x1a, 0x86, 0x45, 0xbc, 0xb4, 0x5d, 0xa2, 0x3d,
  0xe7, 0x45, 0x42, 0x3e, 0x5e, 0x9c, 0xef, 0x3d, 0xea, 0x33, 0x32, 0xbd,
  0xcd, 0xbf, 0xa0, 0xbe, 0x4d, 0x2d, 0xe8, 0x3e, 0x62, 0x2e, 0x6d, 0xbb,
  0xd4, 0x3e, 0x2c, 0xbe, 0xf0, 0xe8, 0xbe, 0xbd, 0xd9, 0x50, 0xb8, 0x3e,
  0x0b, 0xa0, 0x7f, 0xbd, 0x24, 0xa2, 0x63, 0x3d, 0x78, 0x59, 0x14, 0x3e,
  0x68, 0x82, 0xb5, 0xbd, 0xe3, 0x09, 0x3c, 0xbe, 0x53, 0x3d, 0x4c, 0xbd,
  0xd8, 0xcc, 0xfd, 0xbc, 0x79, 0xd2, 0x89, 0xbe, 0x69, 0x17, 0x33, 0x3e,
  0xa1, 0x55, 0xba, 0xbd, 0x14, 0xf2, 0x30, 0xbf, 0x36, 0xd6, 0x55, 0x3d,
  0x1a, 0xf7, 0x01, 0xbd, 0xb5, 0x4c, 0x58, 0x3e, 0x8f, 0xfa, 0xe1, 0x3a,
  0x33, 0x2b, 0xee, 0x3d, 0xb5, 0x7c, 0x8b, 0xbe, 0x7e, 0xb3, 0xe5, 0xbd,
  0x46, 0xfe, 0xff, 0xff, 0x10, 0x00, 0x00, 0x00, 0x05, 0x00, 0x00, 0x00,
  0x14, 0x00, 0x00, 0x00, 0x2c, 0x00, 0x00, 0x00, 0x02, 0x00, 0x00, 0x00,
  0x10, 0x00, 0x00, 0x00, 0x70, 0x00, 0x00, 0x00, 0x17, 0x00, 0x00, 0x00,
  0x73, 0x65, 0x71, 0x75, 0x65, 0x6e, 0x74, 0x69, 0x61, 0x6c, 0x2f, 0x64,
  0x65, 0x6e, 0x73, 0x65, 0x2f, 0x4d, 0x61, 0x74, 0x4d, 0x75, 0x6c, 0x00,
  0x34, 0xfe, 0xff, 0xff, 0x2a, 0xff, 0xff, 0xff, 0x04, 0x00, 0x00, 0x00,
  0x08, 0x00, 0x00, 0x00, 0xff, 0xff, 0xff, 0xff, 0x70, 0x00, 0x00, 0x00,
  0x00, 0x00, 0x0e, 0x00, 0x18, 0x00, 0x08, 0x00, 0x07, 0x00, 0x0c, 0x00,
  0x10, 0x00, 0x14, 0x00, 0x0e, 0x00, 0x00, 0x00, 0x00, 0x00, 0x00, 0x02,
  0x10, 0x00, 0x00, 0x00, 0x04, 0x00, 0x00, 0x00, 0x10, 0x00, 0x00, 0x00,
  0x2c, 0x00, 0x00, 0x00, 0x01, 0x00, 0x00, 0x00, 0x02, 0x00, 0x00, 0x00,
  0x18, 0x00, 0x00, 0x00, 0x73, 0x65, 0x71, 0x75, 0x65, 0x6e, 0x74, 0x69,
  0x61, 0x6c, 0x2f, 0x66, 0x6c, 0x61, 0x74, 0x74, 0x65, 0x6e, 0x2f, 0x43,
  0x6f, 0x6e, 0x73, 0x74, 0x00, 0x00, 0x00, 0x00, 0x9c, 0xfe, 0xff, 0xff,
  0x92, 0xff, 0xff, 0xff, 0x04, 0x00, 0x00, 0x00, 0x10, 0x00, 0x00, 0x00,
  0xb6, 0xfd, 0x60, 0xc0, 0xb7, 0x29, 0x4c, 0xc0, 0xa3, 0x41, 0xbe, 0x3f,
  0xb2, 0x51, 0x8c, 0x3f, 0x0a, 0xff, 0xff, 0xff, 0x10, 0x00, 0x00, 0x00,
  0x03, 0x00, 0x00, 0x00, 0x10, 0x00, 0x00, 0x00, 0x3c, 0x00, 0x00, 0x00,
  0x01, 0x00, 0x00, 0x00, 0x04, 0x00, 0x00, 0x00, 0x29, 0x00, 0x00, 0x00,
  0x73, 0x65, 0x71, 0x75, 0x65, 0x6e, 0x74, 0x69, 0x61, 0x6c, 0x2f, 0x64,
  0x65, 0x6e, 0x73, 0x65, 0x5f, 0x31, 0x2f, 0x42, 0x69, 0x61, 0x73, 0x41,
  0x64, 0x64, 0x2f, 0x52, 0x65, 0x61, 0x64, 0x56, 0x61, 0x72, 0x69, 0x61,
  0x62, 0x6c, 0x65, 0x4f, 0x70, 0x00, 0x00, 0x00, 0x60, 0xff, 0xff, 0xff,
  0x00, 0x00, 0x06, 0x00, 0x08, 0x00, 0x04, 0x00, 0x06, 0x00, 0x00, 0x00,
  0x04, 0x00, 0x00, 0x00, 0x40, 0x00, 0x00, 0x00, 0x70, 0x50, 0x86, 0xbd,
  0x89, 0xd1, 0x6f, 0xbe, 0x5a, 0xd3, 0x68, 0x40, 0xaf, 0x7f, 0xe1, 0x3f,
  0x36, 0x39, 0xea, 0xbe, 0x02, 0x95, 0x13, 0x3d, 0x37, 0xde, 0x63, 0xbf,
  0x84, 0x8f, 0xab, 0xbe, 0x50, 0xbf, 0x0a, 0xbf, 0x0d, 0x71, 0xc0, 0xbd,
  0xe0, 0xff, 0xe9, 0x3e, 0x47, 0x45, 0x8b, 0xbf, 0xcd, 0xcf, 0xac, 0x3f,
  0x9f, 0x18, 0x45, 0x3f, 0x67, 0x64, 0xe4, 0x3f, 0x14, 0x03, 0x8a, 0xbf,
  0xae, 0xff, 0xff, 0xff, 0x10, 0x00, 0x00, 0x00, 0x02, 0x00, 0x00, 0x00,
  0x10, 0x00, 0x00, 0x00, 0x3c, 0x00, 0x00, 0x00, 0x01, 0x00, 0x00, 0x00,
  0x10, 0x00, 0x00, 0x00, 0x27, 0x00, 0x00, 0x00, 0x73, 0x65, 0x71, 0x75,
  0x65, 0x6e, 0x74, 0x69, 0x61, 0x6c, 0x2f, 0x64, 0x65, 0x6e, 0x73, 0x65,
  0x2f, 0x42, 0x69, 0x61, 0x73, 0x41, 0x64, 0x64, 0x2f, 0x52, 0x65, 0x61,
  0x64, 0x56, 0x61, 0x72, 0x69, 0x61, 0x62, 0x6c, 0x65, 0x4f, 0x70, 0x00,
  0x04, 0x00, 0x06, 0x00, 0x04, 0x00, 0x00, 0x00, 0x00, 0x00, 0x0e, 0x00,
  0x14, 0x00, 0x04, 0x00, 0x00, 0x00, 0x08, 0x00, 0x0c, 0x00, 0x10, 0x00,
  0x0e, 0x00, 0x00, 0x00, 0x10, 0x00, 0x00, 0x00, 0x01, 0x00, 0x00, 0x00,
  0x1c, 0x00, 0x00, 0x00, 0x2c, 0x00, 0x00, 0x00, 0x04, 0x00, 0x00, 0x00,
  0x01, 0x00, 0x00, 0x00, 0x40, 0x00, 0x00, 0x00, 0x03, 0x00, 0x00, 0x00,
  0x01, 0x00, 0x00, 0x00, 0x0c, 0x00, 0x00, 0x00, 0x63, 0x6f, 0x6e, 0x76,
  0x32, 0x64, 0x5f, 0x69, 0x6e, 0x70, 0x75, 0x74, 0x00, 0x00, 0x00, 0x00,
  0xfc, 0xff, 0xff, 0xff, 0x04, 0x00, 0x04, 0x00, 0x04, 0x00, 0x00, 0x00
};


unsigned int model_tflite_len = 12384 ;// Fill the int in `src/model.cc` here