#include "magic_wand_model_data.h"


// We need to keep the data array aligned on some architectures.

#ifdef __has_attribute

#define HAVE_ATTRIBUTE(x) __has_attribute(x)

#else

#define HAVE_ATTRIBUTE(x) 0

#endif

#if HAVE_ATTRIBUTE(aligned) || (defined(__GNUC__) && !defined(__clang__))

#define DATA_ALIGN_ATTRIBUTE __attribute__((aligned(4)))

#else

#define DATA_ALIGN_ATTRIBUTE

#endif


const unsigned char g_magic_wand_model_data[] DATA_ALIGN_ATTRIBUTE = {

  // Paste the data of the char array in `src/model.cc` here
  0x08, 0x00, 0x00, 0x00, 0x54, 0x46, 0x4c, 0x33, 0x62, 0xff, 0xff, 0xff,
  0x03, 0x00, 0x00, 0x00, 0x10, 0x00, 0x00, 0x00, 0x24, 0x00, 0x00, 0x00,
  0x78, 0x00, 0x00, 0x00, 0x24, 0x00, 0x00, 0x00, 0x05, 0x00, 0x00, 0x00,
  0x78, 0x05, 0x00, 0x00, 0xb0, 0x04, 0x00, 0x00, 0xe0, 0x02, 0x00, 0x00,
  0x60, 0x02, 0x00, 0x00, 0x54, 0x01, 0x00, 0x00, 0x01, 0x00, 0x00, 0x00,
  0x78, 0x00, 0x00, 0x00, 0x13, 0x00, 0x00, 0x00, 0x18, 0x30, 0x00, 0x00,
  0x14, 0x30, 0x00, 0x00, 0x20, 0x2f, 0x00, 0x00, 0xa8, 0x2e, 0x00, 0x00,
  0x3c, 0x2e, 0x00, 0x00, 0xec, 0x11, 0x00, 0x00, 0x98, 0x10, 0x00, 0x00,
  0xbc, 0x0e, 0x00, 0x00, 0x60, 0x06, 0x00, 0x00, 0xfc, 0x05, 0x00, 0x00,
  0x78, 0x05, 0x00, 0x00, 0xec, 0x2f, 0x00, 0x00, 0xe8, 0x2f, 0x00, 0x00,
  0xe4, 0x2f, 0x00, 0x00, 0xe0, 0x2f, 0x00, 0x00, 0xdc, 0x2f, 0x00, 0x00,
  0xd8, 0x2f, 0x00, 0x00, 0xd4, 0x2f, 0x00, 0x00, 0xd0, 0x2f, 0x00, 0x00,
  0x0f, 0x00, 0x00, 0x00, 0x4d, 0x4c, 0x49, 0x52, 0x20, 0x43, 0x6f, 0x6e,
  0x76, 0x65, 0x72, 0x74, 0x65, 0x64, 0x2e, 0x00, 0x00, 0x00, 0x0e, 0x00,
  0x18, 0x00, 0x04, 0x00, 0x08, 0x00, 0x0c, 0x00, 0x10, 0x00, 0x14, 0x00,
  0x0e, 0x00, 0x00, 0x00, 0x14, 0x00, 0x00, 0x00, 0x5c, 0x00, 0x00, 0x00,
  0x60, 0x00, 0x00, 0x00, 0x64, 0x00, 0x00, 0x00, 0x84, 0x00, 0x00, 0x00,
  0x12, 0x00, 0x00, 0x00, 0x48, 0x2f, 0x00, 0x00, 0xe4, 0x2e, 0x00, 0x00,
  0x3c, 0x2e, 0x00, 0x00, 0xd8, 0x2d, 0x00, 0x00, 0x70, 0x2d, 0x00, 0x00,
  0x1c, 0x11, 0x00, 0x00, 0xc0, 0x0f, 0x00, 0x00, 0xe4, 0x0d, 0x00, 0x00,
  0xa0, 0x05, 0x00, 0x00, 0x3c, 0x05, 0x00, 0x00, 0xb0, 0x04, 0x00, 0x00,
  0xe8, 0x03, 0x00, 0x00, 0x38, 0x03, 0x00, 0x00, 0xa4, 0x02, 0x00, 0x00,
  0x10, 0x02, 0x00, 0x00, 0x90, 0x01, 0x00, 0x00, 0xfc, 0x00, 0x00, 0x00,
  0x80, 0x00, 0x00, 0x00, 0x01, 0x00, 0x00, 0x00, 0x00, 0x00, 0x00, 0x00,
  0x01, 0x00, 0x00, 0x00, 0x11, 0x00, 0x00, 0x00, 0x08, 0x00, 0x00, 0x00,
  0x1c, 0x04, 0x00, 0x00, 0x58, 0x03, 0x00, 0x00, 0xc8, 0x02, 0x00, 0x00,
  0x24, 0x02, 0x00, 0x00, 0xac, 0x01, 0x00, 0x00, 0x10, 0x01, 0x00, 0x00,
  0x94, 0x00, 0x00, 0x00, 0x10, 0x00, 0x00, 0x00, 0x04, 0x00, 0x00, 0x00,
  0x6d, 0x61, 0x69, 0x6e, 0x00, 0x00, 0x00, 0x00, 0x8e, 0xff, 0xff, 0xff,
  0x00, 0x00, 0x00, 0x09, 0x04, 0x00, 0x00, 0x00, 0x1c, 0x00, 0x00, 0x00,
  0x10, 0x00, 0x00, 0x00, 0x04, 0x00, 0x00, 0x00, 0x0a, 0xd2, 0xff, 0xff,
  0x00, 0x00, 0x80, 0x3f, 0x01, 0x00, 0x00, 0x00, 0x11, 0x00, 0x00, 0x00,
  0x01, 0x00, 0x00, 0x00, 0x10, 0x00, 0x00, 0x00, 0xf6, 0xfb, 0xff, 0xff,
  0x00, 0x00, 0x00, 0x19, 0x01, 0x00, 0x00, 0x00, 0x8a, 0xd1, 0xff, 0xff,
  0x10, 0x00, 0x00, 0x00, 0x12, 0x00, 0x00, 0x00, 0x14, 0x00, 0x00, 0x00,
  0x20, 0x00, 0x00, 0x00, 0x02, 0x00, 0x00, 0x00, 0x01, 0x00, 0x00, 0x00,
  0x04, 0x00, 0x00, 0x00, 0x08, 0x00, 0x00, 0x00, 0x49, 0x64, 0x65, 0x6e,
  0x74, 0x69, 0x74, 0x79, 0x00, 0x00, 0x00, 0x00, 0xc4, 0xd1, 0xff, 0xff,
  0x00, 0x00, 0x0e, 0x00, 0x18, 0x00, 0x08, 0x00, 0x0c, 0x00, 0x10, 0x00,
  0x07, 0x00, 0x14, 0x00, 0x0e, 0x00, 0x00, 0x00, 0x00, 0x00, 0x00, 0x08,
  0x03, 0x00, 0x00, 0x00, 0x18, 0x00, 0x00, 0x00, 0x0c, 0x00, 0x00, 0x00,
  0x04, 0x00, 0x00, 0x00, 0x98, 0xd1, 0xff, 0xff, 0x01, 0x00, 0x00, 0x00,
  0x10, 0x00, 0x00, 0x00, 0x03, 0x00, 0x00, 0x00, 0x0f, 0x00, 0x00, 0x00,
  0x05, 0x00, 0x00, 0x00, 0x02, 0x00, 0x00, 0x00, 0x02, 0xd2, 0xff, 0xff,
  0x10, 0x00, 0x00, 0x00, 0x11, 0x00, 0x00, 0x00, 0x14, 0x00, 0x00, 0x00,
  0x30, 0x00, 0x00, 0x00, 0x02, 0x00, 0x00, 0x00, 0x01, 0x00, 0x00, 0x00,
  0x04, 0x00, 0x00, 0x00, 0x1a, 0x00, 0x00, 0x00, 0x73, 0x65, 0x71, 0x75,
  0x65, 0x6e, 0x74, 0x69, 0x61, 0x6c, 0x2f, 0x64, 0x65, 0x6e, 0x73, 0x65,
  0x5f, 0x31, 0x2f, 0x42, 0x69, 0x61, 0x73, 0x41, 0x64, 0x64, 0x00, 0x00,
  0xf4, 0xd1, 0xff, 0xff, 0xd6, 0xfd, 0xff, 0xff, 0x00, 0x00, 0x00, 0x08,
  0x03, 0x00, 0x00, 0x00, 0x24, 0x00, 0x00, 0x00, 0x18, 0x00, 0x00, 0x00,
  0x0c, 0x00, 0x00, 0x00, 0x00, 0x00, 0x06, 0x00, 0x08, 0x00, 0x07, 0x00,
  0x06, 0x00, 0x00, 0x00, 0x00, 0x00, 0x00, 0x01, 0x01, 0x00, 0x00, 0x00,
  0x0f, 0x00, 0x00, 0x00, 0x03, 0x00, 0x00, 0x00, 0x0e, 0x00, 0x00, 0x00,
  0x04, 0x00, 0x00, 0x00, 0x01, 0x00, 0x00, 0x00, 0xfe, 0xfc, 0xff, 0xff,
  0x00, 0x00, 0x00, 0x09, 0x01, 0x00, 0x00, 0x00, 0x92, 0xd2, 0xff, 0xff,
  0x10, 0x00, 0x00, 0x00, 0x10, 0x00, 0x00, 0x00, 0x14, 0x00, 0x00, 0x00,
  0x2c, 0x00, 0x00, 0x00, 0x02, 0x00, 0x00, 0x00, 0x01, 0x00, 0x00, 0x00,
  0x10, 0x00, 0x00, 0x00, 0x15, 0x00, 0x00, 0x00, 0x73, 0x65, 0x71, 0x75,
  0x65, 0x6e, 0x74, 0x69, 0x61, 0x6c, 0x2f, 0x64, 0x65, 0x6e, 0x73, 0x65,
  0x2f, 0x52, 0x65, 0x6c, 0x75, 0x00, 0x00, 0x00, 0xd8, 0xd2, 0xff, 0xff,
  0x00, 0x00, 0x0a, 0x00, 0x10, 0x00, 0x04, 0x00, 0x08, 0x00, 0x0c, 0x00,
  0x0a, 0x00, 0x00, 0x00, 0x02, 0x00, 0x00, 0x00, 0x10, 0x00, 0x00, 0x00,
  0x04, 0x00, 0x00, 0x00, 0x01, 0x00, 0x00, 0x00, 0x0e, 0x00, 0x00, 0x00,
  0x02, 0x00, 0x00, 0x00, 0x0d, 0x00, 0x00, 0x00, 0x03, 0x00, 0x00, 0x00,
  0x7a, 0xfd, 0xff, 0xff, 0x00, 0x00, 0x00, 0x16, 0x01, 0x00, 0x00, 0x00,
  0x0e, 0xd3, 0xff, 0xff, 0x10, 0x00, 0x00, 0x00, 0x0f, 0x00, 0x00, 0x00,
  0x14, 0x00, 0x00, 0x00, 0x30, 0x00, 0x00, 0x00, 0x02, 0x00, 0x00, 0x00,
  0x01, 0x00, 0x00, 0x00, 0x70, 0x00, 0x00, 0x00, 0x1a, 0x00, 0x00, 0x00,
  0x73, 0x65, 0x71, 0x75, 0x65, 0x6e, 0x74, 0x69, 0x61, 0x6c, 0x2f, 0x66,
  0x6c, 0x61, 0x74, 0x74, 0x65, 0x6e, 0x2f, 0x52, 0x65, 0x73, 0x68, 0x61,
  0x70, 0x65, 0x00, 0x00, 0x00, 0xd3, 0xff, 0xff, 0xe2, 0xfe, 0xff, 0xff,
  0x00, 0x00, 0x00, 0x05, 0x01, 0x00, 0x00, 0x00, 0x38, 0x00, 0x00, 0x00,
  0x2c, 0x00, 0x00, 0x00, 0x14, 0x00, 0x00, 0x00, 0x00, 0x00, 0x0e, 0x00,
  0x14, 0x00, 0x00, 0x00, 0x10, 0x00, 0x0c, 0x00, 0x08, 0x00, 0x04, 0x00,
  0x0e, 0x00, 0x00, 0x00, 0x03, 0x00, 0x00, 0x00, 0x01, 0x00, 0x00, 0x00,
  0x03, 0x00, 0x00, 0x00, 0x01, 0x00, 0x00, 0x00, 0x01, 0x00, 0x00, 0x00,
  0x0d, 0x00, 0x00, 0x00, 0x01, 0x00, 0x00, 0x00, 0x0c, 0x00, 0x00, 0x00,
  0x9e, 0xd3, 0xff, 0xff, 0x10, 0x00, 0x00, 0x00, 0x0e, 0x00, 0x00, 0x00,
  0x1c, 0x00, 0x00, 0x00, 0x40, 0x00, 0x00, 0x00, 0x04, 0x00, 0x00, 0x00,
  0x01, 0x00, 0x00, 0x00, 0x07, 0x00, 0x00, 0x00, 0x01, 0x00, 0x00, 0x00,
  0x10, 0x00, 0x00, 0x00, 0x22, 0x00, 0x00, 0x00, 0x73, 0x65, 0x71, 0x75,
  0x65, 0x6e, 0x74, 0x69, 0x61, 0x6c, 0x2f, 0x6d, 0x61, 0x78, 0x5f, 0x70,
  0x6f, 0x6f, 0x6c, 0x69, 0x6e, 0x67, 0x32, 0x64, 0x5f, 0x31, 0x2f, 0x4d,
  0x61, 0x78, 0x50, 0x6f, 0x6f, 0x6c, 0x00, 0x00, 0xa0, 0xd3, 0xff, 0xff,
  0xc2, 0xfe, 0xff, 0xff, 0x00, 0x00, 0x00, 0x01, 0x24, 0x00, 0x00, 0x00,
  0x18, 0x00, 0x00, 0x00, 0x04, 0x00, 0x00, 0x00, 0xb4, 0xfe, 0xff, 0xff,
  0x01, 0x00, 0x00, 0x00, 0x01, 0x00, 0x00, 0x00, 0x00, 0x00, 0x00, 0x01,
  0x01, 0x00, 0x00, 0x00, 0x0c, 0x00, 0x00, 0x00, 0x03, 0x00, 0x00, 0x00,
  0x0b, 0x00, 0x00, 0x00, 0x07, 0x00, 0x00, 0x00, 0x09, 0x00, 0x00, 0x00,
  0x2e, 0xd4, 0xff, 0xff, 0x10, 0x00, 0x00, 0x00, 0x0d, 0x00, 0x00, 0x00,
  0x1c, 0x00, 0x00, 0x00, 0x2c, 0x00, 0x00, 0x00, 0x04, 0x00, 0x00, 0x00,
  0x01, 0x00, 0x00, 0x00, 0x15, 0x00, 0x00, 0x00, 0x01, 0x00, 0x00, 0x00,
  0x10, 0x00, 0x00, 0x00, 0x0c, 0x00, 0x00, 0x00, 0x74, 0x66, 0x6c, 0x2e,
  0x63, 0x6f, 0x6e, 0x76, 0x5f, 0x32, 0x64, 0x31, 0x00, 0x00, 0x00, 0x00,
  0x74, 0xd4, 0xff, 0xff, 0x00, 0x00, 0x0e, 0x00, 0x1a, 0x00, 0x08, 0x00,
  0x0c, 0x00, 0x10, 0x00, 0x07, 0x00, 0x14, 0x00, 0x0e, 0x00, 0x00, 0x00,
  0x00, 0x00, 0x00, 0x05, 0x01, 0x00, 0x00, 0x00, 0x3c, 0x00, 0x00, 0x00,
  0x30, 0x00, 0x00, 0x00, 0x14, 0x00, 0x00, 0x00, 0x00, 0x00, 0x0e, 0x00,
  0x18, 0x00, 0x17, 0x00, 0x10, 0x00, 0x0c, 0x00, 0x08, 0x00, 0x04, 0x00,
  0x0e, 0x00, 0x00, 0x00, 0x03, 0x00, 0x00, 0x00, 0x03, 0x00, 0x00, 0x00,
  0x03, 0x00, 0x00, 0x00, 0x03, 0x00, 0x00, 0x00, 0x00, 0x00, 0x00, 0x01,
  0x01, 0x00, 0x00, 0x00, 0x0b, 0x00, 0x00, 0x00, 0x01, 0x00, 0x00, 0x00,
  0x0a, 0x00, 0x00, 0x00, 0x46, 0xff, 0xff, 0xff, 0x00, 0x00, 0x00, 0x11,
  0x01, 0x00, 0x00, 0x00, 0xda, 0xd4, 0xff, 0xff, 0x10, 0x00, 0x00, 0x00,
  0x0c, 0x00, 0x00, 0x00, 0x1c, 0x00, 0x00, 0x00, 0x40, 0x00, 0x00, 0x00,
  0x04, 0x00, 0x00, 0x00, 0x01, 0x00, 0x00, 0x00, 0x15, 0x00, 0x00, 0x00,
  0x01, 0x00, 0x00, 0x00, 0x08, 0x00, 0x00, 0x00, 0x20, 0x00, 0x00, 0x00,
  0x73, 0x65, 0x71, 0x75, 0x65, 0x6e, 0x74, 0x69, 0x61, 0x6c, 0x2f, 0x6d,
  0x61, 0x78, 0x5f, 0x70, 0x6f, 0x6f, 0x6c, 0x69, 0x6e, 0x67, 0x32, 0x64,
  0x2f, 0x4d, 0x61, 0x78, 0x50, 0x6f, 0x6f, 0x6c, 0x00, 0x00, 0x00, 0x00,
  0x34, 0xd5, 0xff, 0xff, 0x00, 0x00, 0x0e, 0x00, 0x14, 0x00, 0x00, 0x00,
  0x08, 0x00, 0x0c, 0x00, 0x07, 0x00, 0x10, 0x00, 0x0e, 0x00, 0x00, 0x00,
  0x00, 0x00, 0x00, 0x01, 0x30, 0x00, 0x00, 0x00, 0x24, 0x00, 0x00, 0x00,
  0x10, 0x00, 0x00, 0x00, 0x0c, 0x00, 0x10, 0x00, 0x00, 0x00, 0x04, 0x00,
  0x08, 0x00, 0x0f, 0x00, 0x0c, 0x00, 0x00, 0x00, 0x01, 0x00, 0x00, 0x00,
  0x01, 0x00, 0x00, 0x00, 0x00, 0x00, 0x00, 0x01, 0x01, 0x00, 0x00, 0x00,
  0x0a, 0x00, 0x00, 0x00, 0x03, 0x00, 0x00, 0x00, 0x00, 0x00, 0x00, 0x00,
  0x06, 0x00, 0x00, 0x00, 0x08, 0x00, 0x00, 0x00, 0x00, 0x00, 0x0a, 0x00,
  0x0c, 0x00, 0x07, 0x00, 0x00, 0x00, 0x08, 0x00, 0x0a, 0x00, 0x00, 0x00,
  0x00, 0x00, 0x00, 0x03, 0x01, 0x00, 0x00, 0x00, 0x9e, 0xd5, 0xff, 0xff,
  0x10, 0x00, 0x00, 0x00, 0x0b, 0x00, 0x00, 0x00, 0x1c, 0x00, 0x00, 0x00,
  0x28, 0x00, 0x00, 0x00, 0x04, 0x00, 0x00, 0x00, 0x01, 0x00, 0x00, 0x00,
  0x40, 0x00, 0x00, 0x00, 0x03, 0x00, 0x00, 0x00, 0x08, 0x00, 0x00, 0x00,
  0x0b, 0x00, 0x00, 0x00, 0x74, 0x66, 0x6c, 0x2e, 0x63, 0x6f, 0x6e, 0x76,
  0x5f, 0x32, 0x64, 0x00, 0x88, 0xd5, 0xff, 0xff, 0x7e, 0xd6, 0xff, 0xff,
  0x04, 0x00, 0x00, 0x00, 0x40, 0x00, 0x00, 0x00, 0x97, 0x2e, 0x72, 0xbf,
  0x87, 0xf3, 0x41, 0xbf, 0x6b, 0x21, 0xdb, 0xbf, 0x82, 0x3b, 0x02, 0xbe,
  0x3a, 0x51, 0xc9, 0xbe, 0xaf, 0xcb, 0x30, 0xbf, 0xeb, 0x86, 0xb6, 0xbf,
  0x67, 0xa0, 0x50, 0x3e, 0x63, 0x72, 0x85, 0xbf, 0x98, 0x96, 0x4b, 0x3f,
  0x87, 0x5d, 0x8a, 0xbf, 0x39, 0x80, 0xae, 0x3e, 0x0e, 0x4f, 0x2e, 0xbf,
  0x4e, 0x79, 0x8a, 0xbf, 0x5f, 0xa5, 0x3f, 0x40, 0xa5, 0x64, 0x2b, 0xbd,
  0x26, 0xd6, 0xff, 0xff, 0x10, 0x00, 0x00, 0x00, 0x0a, 0x00, 0x00, 0x00,
  0x10, 0x00, 0x00, 0x00, 0x20, 0x00, 0x00, 0x00, 0x01, 0x00, 0x00, 0x00,
  0x10, 0x00, 0x00, 0x00, 0x0d, 0x00, 0x00, 0x00, 0x73, 0x74, 0x64, 0x2e,
  0x63, 0x6f, 0x6e, 0x73, 0x74, 0x61, 0x6e, 0x74, 0x31, 0x00, 0x00, 0x00,
  0x08, 0xd6, 0xff, 0xff, 0xfe, 0xd6, 0xff, 0xff, 0x04, 0x00, 0x00, 0x00,
  0x20, 0x00, 0x00, 0x00, 0x8d, 0xc4, 0xa7, 0xbf, 0x8e, 0x79, 0x71, 0xbe,
  0xed, 0x0c, 0x35, 0xc0, 0x87, 0xdb, 0x92, 0xbf, 0x18, 0x22, 0xce, 0x3c,
  0xd8, 0x0e, 0x72, 0xbf, 0xae, 0x07, 0xd8, 0xbd, 0x02, 0x1b, 0x0e, 0xc0,
  0x86, 0xd6, 0xff, 0xff, 0x10, 0x00, 0x00, 0x00, 0x09, 0x00, 0x00, 0x00,
  0x10, 0x00, 0x00, 0x00, 0x20, 0x00, 0x00, 0x00, 0x01, 0x00, 0x00, 0x00,
  0x08, 0x00, 0x00, 0x00, 0x0c, 0x00, 0x00, 0x00, 0x73, 0x74, 0x64, 0x2e,
  0x63, 0x6f, 0x6e, 0x73, 0x74, 0x61, 0x6e, 0x74, 0x00, 0x00, 0x00, 0x00,
  0x68, 0xd6, 0xff, 0xff, 0x5e, 0xd7, 0xff, 0xff, 0x04, 0x00, 0x00, 0x00,
  0x00, 0x08, 0x00, 0x00, 0x4f, 0x84, 0x78, 0xbe, 0x13, 0xd2, 0xcb, 0xbd,
  0x03, 0xb2, 0x15, 0xbe, 0x61, 0x2c, 0x07, 0x3e, 0xf7, 0x28, 0x0d, 0xbe,
  0xfc, 0xd7, 0x8f, 0xbe, 0x36, 0x3a, 0x71, 0xbe, 0x89, 0x0d, 0xf5, 0xbe,
  0x06, 0x5e, 0x89, 0xbd, 0xaa, 0x8c, 0x92, 0x3e, 0x5a, 0x3e, 0x3f, 0x3d,
  0x25, 0x78, 0x0f, 0x3f, 0x80, 0xba, 0x2f, 0x36, 0xbe, 0x0d, 0x8a, 0xbd,
  0x40, 0x79, 0x20, 0xbe, 0x21, 0x21, 0x69, 0x3e, 0xde, 0x46, 0xa2, 0x3d,
  0x1f, 0x6d, 0xa2, 0xbd, 0x30, 0xf4, 0xd1, 0x3d, 0x5c, 0x4e, 0x05, 0xbf,
  0xa2, 0xc1, 0x17, 0xbd, 0x68, 0xdd, 0x65, 0x3c, 0xf3, 0xdb, 0x6d, 0xbd,
  0x80, 0xd1, 0x65, 0x3e, 0x2b, 0xa0, 0xc7, 0xbc, 0x05, 0x40, 0x83, 0xbd,
  0x67, 0x5c, 0x4e, 0x3c, 0x94, 0xe5, 0x12, 0xbf, 0x64, 0x51, 0x45, 0xbd,
  0x31, 0x77, 0x92, 0xbc, 0x96, 0x4c, 0x3b, 0xbe, 0x81, 0x2c, 0xd7, 0x3c,
  0x41, 0x17, 0x15, 0xbc, 0xc3, 0x7e, 0x20, 0xbe, 0x08, 0xee, 0x82, 0x3e,
  0xe2, 0x73, 0x38, 0x3f, 0x9f, 0xd3, 0x77, 0x3d, 0x46, 0x18, 0xcd, 0x3e,
  0x35, 0xce, 0x09, 0xbf, 0x82, 0x5f, 0x13, 0x3d, 0x7b, 0x44, 0x7e, 0xbe,
  0x2c, 0xa2, 0xc5, 0xbd, 0x19, 0x4a, 0xd3, 0xbd, 0xdc, 0x89, 0xca, 0x3e,
  0xcc, 0x02, 0x6e, 0xbd, 0x49, 0x4e, 0x0a, 0xbe, 0x68, 0x7f, 0xbc, 0xbe,
  0xdc, 0x3e, 0xbf, 0xbe, 0xa7, 0x19, 0x8d, 0xbd, 0xbb, 0x73, 0x99, 0x3d,
  0x13, 0xd7, 0xdd, 0xbd, 0x28, 0x50, 0x87, 0x3e, 0x35, 0x96, 0xbd, 0xbd,
  0x3b, 0xa7, 0xb9, 0xbe, 0x9b, 0x3b, 0x94, 0xbd, 0x08, 0x9d, 0x6b, 0xbe,
  0x29, 0x13, 0x49, 0x3e, 0x9e, 0xd7, 0x54, 0x3e, 0xad, 0x82, 0x27, 0xbe,
  0x00, 0x2a, 0xed, 0x3c, 0xe9, 0xe3, 0xff, 0xbd, 0xc7, 0x7c, 0xe0, 0xbe,
  0xf5, 0xc2, 0xbf, 0xbd, 0xc6, 0xb0, 0xea, 0x3c, 0xfd, 0x54, 0x90, 0xbe,
  0xf5, 0x5f, 0xea, 0x3d, 0xcd, 0xc8, 0xff, 0xbd, 0x63, 0x33, 0xa2, 0xbb,
  0x4e, 0x95, 0x6b, 0x3d, 0x67, 0x4b, 0x89, 0xbf, 0x48, 0x00, 0xdb, 0xbd,
  0x28, 0x98, 0xfa, 0xbe, 0x89, 0x41, 0x65, 0xbe, 0xc2, 0x09, 0xd0, 0xbc,
  0xe6, 0x51, 0x8b, 0xbc, 0x29, 0x3e, 0xb5, 0x3e, 0x91, 0xb9, 0xb1, 0x3e,
  0x9e, 0x3f, 0xb9, 0xbf, 0x2e, 0x7d, 0x4c, 0x3c, 0x56, 0x8e, 0x04, 0x3e,
  0xf0, 0x8b, 0x97, 0xbe, 0x11, 0x38, 0x1b, 0xbe, 0xb1, 0xc6, 0x07, 0x3d,
  0x10, 0xd2, 0xfd, 0xbe, 0x64, 0x86, 0x96, 0x3d, 0xd0, 0x9b, 0x90, 0xbe,
  0x3a, 0xd0, 0x83, 0x3d, 0xb7, 0x02, 0x83, 0x3e, 0x9c, 0x85, 0xe7, 0xbe,
  0x33, 0xfd, 0x1e, 0xbe, 0xb6, 0x0e, 0xf4, 0xbd, 0xda, 0x61, 0x80, 0xbe,
  0x86, 0x7e, 0x5c, 0xbe, 0x7f, 0x0c, 0x66, 0x3e, 0x64, 0xd2, 0x94, 0xbe,
  0xfa, 0x6d, 0xd1, 0x3d, 0xbd, 0xce, 0x1b, 0xbe, 0x17, 0x93, 0xc5, 0xbe,
  0x2c, 0x10, 0x37, 0xbe, 0xc9, 0x32, 0xc5, 0xbb, 0x1b, 0xb3, 0xa2, 0xbd,
  0x18, 0x4d, 0x0f, 0xbf, 0xb5, 0x21, 0x2a, 0xbe, 0x8d, 0xc2, 0x4e, 0xbe,
  0xd4, 0xd1, 0xf4, 0x3d, 0xf3, 0x50, 0x9b, 0xbe, 0x66, 0xbc, 0x76, 0x3e,
  0xb4, 0x11, 0xff, 0xbd, 0xc2, 0xa4, 0x0d, 0x3e, 0x14, 0x16, 0x87, 0xbd,
  0x9b, 0x89, 0xa0, 0x3c, 0x37, 0x98, 0xfb, 0xbd, 0x28, 0xf2, 0x88, 0xbd,
  0x15, 0xf4, 0x9b, 0xbe, 0x0f, 0x32, 0xfe, 0x3d, 0x3b, 0x51, 0x0b, 0xbe,
  0x10, 0x33, 0x3d, 0x3e, 0x76, 0xb3, 0xa5, 0xbd, 0x50, 0xf6, 0x24, 0xbd,
  0xf2, 0x75, 0x43, 0xbe, 0xc3, 0xa9, 0x88, 0xbd, 0xbd, 0xc9, 0x7b, 0xbe,
  0x66, 0x76, 0x5b, 0x3d, 0x2a, 0x5e, 0x41, 0x3e, 0x21, 0x2f, 0x38, 0xbb,
  0xda, 0xd5, 0x9b, 0xbc, 0x3e, 0x90, 0x31, 0xbd, 0x5c, 0x00, 0xa8, 0x39,
  0x39, 0xe7, 0x53, 0x3d, 0x6a, 0xd7, 0x9c, 0x3d, 0xce, 0xb8, 0x9a, 0x3e,
  0x1f, 0xbd, 0x57, 0xbe, 0xc9, 0x8c, 0xd5, 0xbc, 0x38, 0xd3, 0xad, 0xbc,
  0xa7, 0xf4, 0xe6, 0x3b, 0x74, 0x09, 0x67, 0x3c, 0x43, 0xb6, 0x81, 0xbd,
  0x2f, 0x38, 0xd0, 0x3a, 0xce, 0xad, 0xc5, 0xbd, 0x82, 0xf6, 0x51, 0xbe,
  0xaf, 0x4c, 0xf9, 0x3d, 0x2b, 0xea, 0x5b, 0xbd, 0xf9, 0x55, 0x3d, 0x3d,
  0x31, 0x9f, 0x26, 0xbd, 0x61, 0x2c, 0xb0, 0xbd, 0x62, 0x10, 0x83, 0x3d,
  0xad, 0x53, 0x4c, 0x3d, 0x4c, 0x92, 0x4d, 0xbe, 0xbc, 0xe4, 0x79, 0xbd,
  0xf8, 0x09, 0x9b, 0xbd, 0x56, 0xee, 0x4a, 0x3c, 0x9e, 0x91, 0x83, 0xbd,
  0x87, 0xc6, 0x64, 0xbd, 0x73, 0x3a, 0x07, 0xbd, 0x20, 0xd4, 0xea, 0xbc,
  0x26, 0x73, 0x04, 0xbe, 0x17, 0x5d, 0x0f, 0x3e, 0x86, 0x12, 0x83, 0xbd,
  0x6c, 0x0b, 0x36, 0x3c, 0x5e, 0xf8, 0x44, 0xbd, 0x80, 0x64, 0x5c, 0xbd,
  0x77, 0x38, 0xe8, 0x3d, 0x22, 0xea, 0xc7, 0x3d, 0xe6, 0x33, 0xd2, 0x3e,
  0x83, 0xa7, 0xd7, 0x3e, 0x1c, 0x18, 0xf8, 0xbe, 0xd7, 0xe5, 0x83, 0x3e,
  0x64, 0x00, 0x2d, 0x3e, 0xf9, 0x10, 0x03, 0xbe, 0x86, 0xce, 0x1a, 0xbe,
  0x37, 0xe3, 0xc5, 0x3c, 0x07, 0x1e, 0x96, 0xbe, 0xaf, 0x8a, 0x81, 0xbe,
  0xdb, 0x78, 0xd4, 0xbd, 0x68, 0x07, 0x88, 0xbe, 0x51, 0x5c, 0x0d, 0xbd,
  0x84, 0x32, 0x84, 0xbe, 0xe0, 0x28, 0x4e, 0x3d, 0x5f, 0x4b, 0x5a, 0xbc,
  0x1b, 0xb3, 0xb0, 0x3d, 0x03, 0xe5, 0xeb, 0xbe, 0xe4, 0xd7, 0xe4, 0xbc,
  0x42, 0xc1, 0x43, 0xbf, 0x70, 0x5a, 0xc0, 0x3d, 0xc5, 0x23, 0x2f, 0xbf,
  0xee, 0x0e, 0xe2, 0xbd, 0xd5, 0x0e, 0xd0, 0xbd, 0x8c, 0x61, 0xb3, 0x3d,
  0x8b, 0x25, 0x10, 0xbf, 0x23, 0xcb, 0x80, 0xbc, 0xab, 0x2a, 0x76, 0xbf,
  0x14, 0x16, 0x37, 0xbe, 0xd7, 0x57, 0xca, 0xbd, 0xb2, 0xbe, 0x02, 0xbe,
  0xc2, 0xe0, 0x4a, 0xbe, 0x00, 0xa1, 0x0e, 0xbd, 0xf2, 0xab, 0xa9, 0xbe,
  0xac, 0xb4, 0x7b, 0xbd, 0x10, 0x23, 0x94, 0xbd, 0x31, 0xa6, 0x52, 0xbe,
  0x8d, 0x68, 0x2e, 0x3c, 0xcd, 0x69, 0xad, 0xbd, 0x8a, 0x90, 0x2f, 0xbd,
  0x12, 0x0f, 0x23, 0xbe, 0x28, 0xe9, 0x8d, 0xbe, 0x86, 0xd9, 0xbb, 0x3b,
  0x8d, 0xa7, 0x60, 0xbd, 0x79, 0xfd, 0x3e, 0x3e, 0x7c, 0xf2, 0x77, 0xbd,
  0x86, 0x5a, 0x77, 0x3c, 0x88, 0x89, 0x06, 0x3f, 0x02, 0x19, 0x4e, 0x3e,
  0xde, 0x20, 0xf0, 0xbc, 0xf5, 0xae, 0x9c, 0xba, 0x31, 0x31, 0xbc, 0xbd,
  0x62, 0x62, 0x0e, 0xbd, 0x09, 0x64, 0xa3, 0xbd, 0xc9, 0x40, 0xa6, 0xbd,
  0xaf, 0x2c, 0x83, 0xbd, 0x03, 0xa8, 0x40, 0x3e, 0x40, 0x86, 0x80, 0xbd,
  0xbd, 0x82, 0xa9, 0xbc, 0xc3, 0x5e, 0xd5, 0xbd, 0x1b, 0x81, 0xeb, 0xbb,
  0xa4, 0xdb, 0xaa, 0xbd, 0x6a, 0xcc, 0x19, 0x3d, 0xfa, 0x0f, 0x84, 0xbd,
  0x5b, 0x98, 0x99, 0x3c, 0x41, 0x46, 0x05, 0xbe, 0x76, 0x69, 0xef, 0x39,
  0x88, 0x14, 0x8f, 0xbd, 0x83, 0xe3, 0x4d, 0xbe, 0x87, 0xb5, 0x11, 0xbe,
  0x01, 0xb8, 0x15, 0x3f, 0x64, 0xf1, 0xe2, 0xbd, 0xb0, 0x43, 0xb7, 0xbd,
  0xd0, 0x24, 0x83, 0xbd, 0x36, 0xc2, 0x84, 0xbc, 0xab, 0x2c, 0xce, 0xbd,
  0x74, 0xe6, 0x16, 0xbe, 0x90, 0xb5, 0xad, 0xbd, 0xf9, 0xd9, 0x40, 0xbd,
  0xcb, 0xd2, 0xe3, 0x3b, 0x3c, 0xb1, 0xe6, 0x3d, 0xf1, 0x5f, 0x05, 0xbd,
  0x76, 0x38, 0xc7, 0xbd, 0x43, 0xcc, 0x10, 0xbd, 0x25, 0xaf, 0x5b, 0xbc,
  0xf1, 0x24, 0x0c, 0xbe, 0xbc, 0xf8, 0x11, 0xbd, 0xae, 0x76, 0x33, 0xbd,
  0xda, 0x02, 0x09, 0xbe, 0xfc, 0x23, 0x58, 0xbd, 0x01, 0xbf, 0x09, 0x3e,
  0x4a, 0x40, 0x85, 0xbd, 0x76, 0x05, 0xc9, 0x3b, 0x00, 0xee, 0xae, 0xbc,
  0x8f, 0xa7, 0x32, 0xbe, 0x25, 0x10, 0x57, 0xbd, 0x7d, 0xcb, 0x0e, 0xbf,
  0xa1, 0xbf, 0x2f, 0xbf, 0x2b, 0x3f, 0x8b, 0xbc, 0xba, 0x9d, 0xa1, 0xbb,
  0x42, 0x6a, 0xb0, 0x3d, 0xe6, 0x19, 0x25, 0xbc, 0x2c, 0x19, 0x06, 0xbe,
  0x1f, 0x80, 0x72, 0x3e, 0x8d, 0xbd, 0xac, 0xbd, 0x4c, 0x33, 0x1c, 0xbf,
  0x3b, 0x5d, 0x80, 0xbc, 0x11, 0xe6, 0xc2, 0xbc, 0x12, 0xb2, 0xa4, 0x3e,
  0x99, 0xec, 0x32, 0xbb, 0x5f, 0x63, 0xfd, 0xbb, 0x75, 0xf6, 0xb6, 0xbd,
  0x94, 0x95, 0x01, 0x3f, 0x5e, 0xf5, 0x3e, 0xbe, 0xf1, 0xbd, 0x40, 0x3b,
  0x04, 0x9a, 0x88, 0xbd, 0xe4, 0xc7, 0xa5, 0x3d, 0x30, 0x0a, 0xba, 0xbe,
  0xe2, 0xab, 0x7b, 0xbd, 0xf0, 0x8f, 0xd4, 0xbd, 0x87, 0x0f, 0xaa, 0x3e,
  0xdb, 0x06, 0x5c, 0x3d, 0xa6, 0x83, 0xed, 0xbd, 0x42, 0xca, 0xe4, 0xbe,
  0x63, 0x53, 0x39, 0xbf, 0x26, 0x3a, 0xab, 0xbe, 0x1e, 0xb5, 0xcb, 0x3d,
  0x0f, 0x3b, 0xd8, 0xbd, 0x33, 0xb3, 0xfb, 0xbe, 0x24, 0x28, 0xc2, 0xbc,
  0x09, 0xfc, 0x25, 0x3e, 0x5e, 0xb1, 0xc6, 0xbe, 0x6d, 0x0c, 0x8d, 0xbd,
  0xcc, 0xbb, 0xbe, 0xbe, 0xe2, 0x84, 0xbf, 0xbe, 0x16, 0x05, 0x2a, 0x3e,
  0x52, 0x18, 0xe1, 0xbd, 0x67, 0x97, 0xfb, 0x3d, 0xa9, 0xbe, 0x06, 0xbd,
  0x64, 0x0a, 0x0e, 0xbf, 0x23, 0x78, 0x13, 0xbd, 0x73, 0x56, 0xdb, 0xbd,
  0x9e, 0xfc, 0x01, 0x3e, 0x90, 0x1c, 0x86, 0x3d, 0x53, 0x61, 0x8a, 0xbe,
  0xaa, 0x62, 0x75, 0xbc, 0x56, 0xb4, 0x19, 0x3e, 0xb4, 0x5a, 0x09, 0xbf,
  0xed, 0xc3, 0x03, 0xbe, 0x28, 0x09, 0x12, 0x3d, 0x6a, 0xc9, 0xda, 0xbe,
  0xf6, 0x13, 0x5c, 0x3d, 0xf8, 0x1d, 0x17, 0x3d, 0x3a, 0x80, 0x48, 0x3d,
  0xa2, 0xe8, 0x2c, 0x3c, 0x32, 0xe9, 0x2a, 0xbf, 0x4c, 0x3f, 0x07, 0x3d,
  0x1b, 0x60, 0xbd, 0xbd, 0xfb, 0x7b, 0xa1, 0xbe, 0xed, 0x81, 0x4f, 0xbe,
  0x61, 0x8d, 0x8b, 0xbe, 0x8c, 0x24, 0x68, 0xbf, 0x5c, 0xbd, 0x21, 0xbd,
  0x83, 0x0d, 0x50, 0xbd, 0xe0, 0xd3, 0x93, 0xbe, 0x34, 0xe5, 0xc8, 0xbb,
  0x96, 0xa2, 0xab, 0xbd, 0xe6, 0xb1, 0x48, 0x3e, 0x84, 0xd4, 0xca, 0xbe,
  0x58, 0x84, 0x22, 0xbf, 0x71, 0xe6, 0x31, 0xbc, 0xa4, 0xf8, 0x83, 0xbc,
  0x80, 0x31, 0x91, 0x3c, 0x23, 0x37, 0x4c, 0xbd, 0xf7, 0xf5, 0x51, 0xbd,
  0x97, 0x4d, 0xf6, 0x3d, 0xf0, 0x60, 0xd0, 0xbe, 0x18, 0x0c, 0x30, 0xbf,
  0x13, 0xbe, 0xc3, 0xbc, 0xfa, 0x03, 0xd6, 0xbc, 0x86, 0x39, 0x92, 0xbe,
  0x60, 0x95, 0x56, 0xbb, 0x37, 0x26, 0x0c, 0xbd, 0x60, 0xe3, 0x54, 0x3e,
  0xf5, 0xd8, 0x5c, 0xbe, 0x57, 0x6f, 0x2a, 0xbf, 0x9e, 0x2c, 0x81, 0x3c,
  0x90, 0x15, 0xd0, 0x3c, 0xa6, 0xc2, 0xa4, 0x3e, 0x44, 0xd5, 0xe6, 0xbe,
  0x79, 0x9a, 0xb2, 0xbe, 0x7b, 0xb6, 0xd9, 0x3d, 0x3a, 0x38, 0x11, 0xbc,
  0xaa, 0x6d, 0x45, 0xbd, 0x87, 0xc0, 0x6f, 0xbd, 0x94, 0xdd, 0xcd, 0xbe,
  0x8b, 0x40, 0xed, 0xbe, 0x8f, 0x94, 0x6d, 0x3b, 0x15, 0xae, 0x0c, 0xbe,
  0x47, 0x89, 0x0f, 0xbf, 0x19, 0x97, 0x4e, 0xbe, 0xae, 0x6e, 0x33, 0xbe,
  0x01, 0xd1, 0x39, 0x3c, 0x04, 0xff, 0xbe, 0xbd, 0x33, 0xa8, 0x20, 0xbd,
  0xce, 0xc6, 0x2b, 0xbc, 0xae, 0x99, 0x15, 0xbe, 0xb5, 0x56, 0xc0, 0xbe,
  0x4a, 0x13, 0x84, 0xbe, 0x2d, 0x40, 0xba, 0xbe, 0x70, 0x22, 0x82, 0x3c,
  0xd5, 0xed, 0x8c, 0x3c, 0x3e, 0x19, 0xba, 0xbd, 0x24, 0xdf, 0xbe, 0x3c,
  0x43, 0xad, 0x0c, 0xbe, 0x80, 0x45, 0x36, 0xbe, 0x2e, 0x1a, 0x30, 0xbe,
  0xb8, 0x73, 0xaa, 0xbe, 0x0f, 0x71, 0x34, 0x3d, 0x70, 0xbe, 0xe9, 0x3d,
  0x12, 0xdc, 0x04, 0x3f, 0x5d, 0x14, 0x0c, 0xbd, 0xec, 0x1d, 0x1e, 0xbe,
  0x0f, 0x26, 0x11, 0x3f, 0x18, 0x5d, 0x77, 0x3e, 0xac, 0xa9, 0xb2, 0xbd,
  0xf9, 0xde, 0x33, 0x3d, 0x69, 0xa2, 0xb0, 0xbd, 0xcd, 0x00, 0x15, 0x3e,
  0xf5, 0x22, 0x94, 0xbd, 0x03, 0x77, 0xda, 0xbd, 0x6e, 0x02, 0x92, 0xbd,
  0xa3, 0x42, 0x70, 0xbd, 0xb6, 0x17, 0xa4, 0xbd, 0x7b, 0x7d, 0x8d, 0x3c,
  0xf2, 0xcc, 0xe5, 0xbd, 0x49, 0xdd, 0x3a, 0x3c, 0xd4, 0xba, 0x14, 0xbd,
  0x85, 0x95, 0xdf, 0xbc, 0x53, 0x53, 0xb5, 0xbd, 0x88, 0xc4, 0x9c, 0xbd,
  0xe6, 0xfd, 0xad, 0x3c, 0x99, 0xec, 0x95, 0x3b, 0x2b, 0x57, 0x2c, 0xbd,
  0xea, 0x00, 0x2b, 0xbd, 0x59, 0x23, 0xdd, 0xbd, 0xfe, 0xff, 0x88, 0x3b,
  0x1c, 0x9d, 0x75, 0xbd, 0x15, 0x19, 0x35, 0xbe, 0x98, 0xdd, 0x30, 0xbd,
  0x08, 0x22, 0x1b, 0xbd, 0xde, 0x27, 0x9f, 0xbd, 0x5e, 0x70, 0x39, 0xbe,
  0xee, 0x9e, 0x71, 0xbe, 0xaf, 0xb7, 0xd2, 0xbd, 0x59, 0x31, 0xa5, 0xbd,
  0xe7, 0x1b, 0x1b, 0xbe, 0x48, 0xf0, 0x3e, 0xbe, 0xaa, 0xb6, 0xdd, 0xbe,
  0xb9, 0x81, 0x66, 0xbe, 0x39, 0x41, 0xa6, 0xbe, 0x0a, 0x52, 0x48, 0xbe,
  0x96, 0xef, 0x1c, 0x3e, 0x69, 0xdd, 0xc6, 0xbd, 0xfe, 0x07, 0x27, 0xbb,
  0x6d, 0x4f, 0x13, 0xbe, 0xd6, 0x2e, 0xbe, 0xbe, 0xc9, 0xb0, 0x35, 0xbe,
  0xb2, 0xb2, 0x81, 0xbe, 0xfd, 0xa7, 0x4b, 0xbd, 0xe1, 0x0a, 0x4f, 0xbc,
  0x18, 0xdf, 0x8a, 0xbd, 0xd6, 0xfb, 0x47, 0xbd, 0xb2, 0x11, 0x81, 0xbd,
  0xd6, 0x69, 0x52, 0xbe, 0x80, 0xfa, 0x9d, 0xbd, 0xbc, 0xca, 0x81, 0xbd,
  0x24, 0x9d, 0xa5, 0x3d, 0x8a, 0x48, 0x71, 0xbd, 0x4a, 0x33, 0x39, 0x3e,
  0xf1, 0xbd, 0x80, 0x3e, 0xbc, 0x0a, 0x33, 0x3d, 0x3b, 0x54, 0xa8, 0x3d,
  0x89, 0x00, 0xef, 0xbd, 0xe5, 0x4a, 0x2c, 0x3f, 0xe8, 0x5f, 0x6d, 0xbe,
  0xc5, 0x65, 0x42, 0xbd, 0x05, 0xed, 0xcc, 0x3d, 0xca, 0x61, 0xec, 0x3e,
  0xc7, 0xf7, 0xaa, 0xbe, 0xba, 0xe5, 0xfa, 0x3b, 0xc5, 0x84, 0x76, 0xbe,
  0xd7, 0x8a, 0x75, 0xbd, 0x67, 0x36, 0xc6, 0x3d, 0x49, 0xfb, 0x0e, 0xbe,
  0x46, 0x90, 0x1b, 0xbe, 0xaf, 0xc6, 0x29, 0x3e, 0xa1, 0x3e, 0xa6, 0xbd,
  0xa4, 0xcc, 0x3c, 0xbe, 0xcb, 0x32, 0x7a, 0xbe, 0x66, 0xca, 0xba, 0xbe,
  0xde, 0xef, 0xd7, 0xbd, 0xed, 0x6c, 0x7a, 0xbd, 0x79, 0xee, 0x31, 0xbd,
  0x8a, 0x1f, 0xd3, 0xbd, 0x5a, 0x3d, 0x2d, 0x3e, 0x08, 0x28, 0xb8, 0xbe,
  0x26, 0xa3, 0xaf, 0xbd, 0x3a, 0xc9, 0x82, 0xbe, 0xc2, 0x2e, 0x1e, 0xbe,
  0xa7, 0x87, 0x90, 0xbe, 0xd8, 0x6c, 0x82, 0xbd, 0x75, 0x05, 0xb5, 0xbe,
  0xbf, 0x32, 0x57, 0x3d, 0x80, 0x65, 0xc1, 0xbe, 0x9e, 0x71, 0x0e, 0xbd,
  0x27, 0x62, 0x0e, 0xbe, 0xe0, 0x8f, 0xc7, 0xbe, 0x3c, 0x0d, 0x05, 0x3e,
  0x8f, 0x7b, 0x14, 0xbe, 0x5c, 0x04, 0x2c, 0x3f, 0xc3, 0x49, 0x74, 0x3c,
  0x95, 0x07, 0xbc, 0xbe, 0x94, 0xec, 0x84, 0xbd, 0x5d, 0x3c, 0x69, 0x3e,
  0x32, 0x29, 0x94, 0xbe, 0x7a, 0xfd, 0x3a, 0xbd, 0x50, 0xad, 0x23, 0xbe,
  0x0e, 0x50, 0x7f, 0x3e, 0xca, 0x07, 0x2e, 0x3e, 0x4e, 0x4b, 0x94, 0xbe,
  0xac, 0x30, 0x1c, 0x3e, 0x70, 0x2b, 0x04, 0x3e, 0x01, 0xeb, 0x86, 0xbe,
  0x30, 0x70, 0xa1, 0xbd, 0x42, 0x50, 0x0f, 0xbe, 0x37, 0xb7, 0x44, 0x3e,
  0xf9, 0x50, 0x5a, 0xbc, 0xe4, 0x6e, 0x4b, 0xbd, 0x55, 0x4a, 0x95, 0x3c,
  0xe2, 0xaf, 0xcc, 0x3d, 0x42, 0xd2, 0x91, 0xbe, 0x77, 0x0e, 0x9a, 0xbd,
  0xb4, 0x4b, 0x09, 0xbe, 0x7d, 0xfc, 0x32, 0x3e, 0x82, 0x1f, 0x4b, 0xbd,
  0xcc, 0x49, 0x2a, 0x3e, 0xc6, 0x54, 0xc9, 0xbd, 0x01, 0x9f, 0xb7, 0xbb,
  0xc6, 0xde, 0xff, 0xff, 0x10, 0x00, 0x00, 0x00, 0x08, 0x00, 0x00, 0x00,
  0x1c, 0x00, 0x00, 0x00, 0x38, 0x00, 0x00, 0x00, 0x04, 0x00, 0x00, 0x00,
  0x10, 0x00, 0x00, 0x00, 0x04, 0x00, 0x00, 0x00, 0x01, 0x00, 0x00, 0x00,
  0x08, 0x00, 0x00, 0x00, 0x1a, 0x00, 0x00, 0x00, 0x73, 0x65, 0x71, 0x75,
  0x65, 0x6e, 0x74, 0x69, 0x61, 0x6c, 0x2f, 0x63, 0x6f, 0x6e, 0x76, 0x32,
  0x64, 0x5f, 0x31, 0x2f, 0x43, 0x6f, 0x6e, 0x76, 0x32, 0x44, 0x00, 0x00,
  0xc0, 0xde, 0xff, 0xff, 0xb6, 0xdf, 0xff, 0xff, 0x04, 0x00, 0x00, 0x00,
  0x80, 0x01, 0x00, 0x00, 0x29, 0x6a, 0x60, 0x3d, 0x07, 0x25, 0x19, 0x3e,
  0xd0, 0xe7, 0x3a, 0x3d, 0x5f, 0x49, 0xe7, 0xbb, 0x77, 0x4c, 0x6e, 0x3d,
  0xc0, 0x0c, 0xac, 0xbd, 0xc9, 0xc9, 0x0b, 0x3d, 0x6e, 0xc8, 0x54, 0x3d,
  0x31, 0xb6, 0x2e, 0xbd, 0xe4, 0x15, 0xd4, 0x3d, 0x48, 0x6c, 0x89, 0x3a,
  0x61, 0xc1, 0xff, 0xbc, 0x87, 0x64, 0xc2, 0x3d, 0x5f, 0xbc, 0x26, 0xbe,
  0x2c, 0x5f, 0xc1, 0xbd, 0x16, 0xae, 0xcc, 0xbc, 0x54, 0xf1, 0xc4, 0xbd,
  0xeb, 0x95, 0x0a, 0xbe, 0xcd, 0xd5, 0x05, 0x3f, 0xd7, 0xf1, 0x21, 0x3e,
  0xf6, 0x2a, 0x0d, 0x3e, 0x66, 0x72, 0xe1, 0x3e, 0x04, 0x9c, 0x1e, 0x3e,
  0x25, 0x55, 0x47, 0x3e, 0xad, 0xec, 0x0b, 0x3c, 0x91, 0x5a, 0xc4, 0xbb,
  0xf0, 0xf5, 0x85, 0x3e, 0x46, 0x51, 0x3a, 0x3e, 0xec, 0xa5, 0x32, 0xbd,
  0x9c, 0x2f, 0x41, 0x3e, 0x22, 0xe4, 0xa3, 0xbd, 0x71, 0xcf, 0x57, 0xbd,
  0x33, 0x8a, 0x9f, 0x3e, 0x70, 0xc8, 0xb4, 0xbd, 0xec, 0x07, 0x3a, 0x3d,
  0x8b, 0x2f, 0x62, 0x3d, 0x2e, 0x73, 0xa4, 0xbe, 0x81, 0x63, 0xb1, 0xbd,
  0x6a, 0x09, 0x66, 0xbd, 0xd0, 0xee, 0x93, 0xbd, 0x5f, 0x08, 0x5e, 0xbe,
  0xa7, 0x7c, 0x7c, 0xbe, 0xce, 0x5e, 0xe8, 0x3e, 0xba, 0xe1, 0xa1, 0x3e,
  0xc4, 0xab, 0xaf, 0x3e, 0x04, 0xa9, 0xc6, 0x3d, 0xb1, 0xe2, 0x9a, 0x3d,
  0xb7, 0xe8, 0xa4, 0x3d, 0x42, 0xf2, 0xac, 0x3d, 0xe5, 0x8c, 0x06, 0x3e,
  0xe5, 0x8f, 0x71, 0xbe, 0x83, 0x46, 0x46, 0x3d, 0x6b, 0x56, 0xa3, 0xbd,
  0x07, 0x09, 0x30, 0x3e, 0x6e, 0x50, 0xd4, 0x3d, 0x87, 0xfd, 0x93, 0x3e,
  0x93, 0xa5, 0x36, 0x3d, 0x9d, 0x8e, 0xc3, 0x3d, 0x6d, 0xa0, 0x1e, 0x3e,
  0xfa, 0xe3, 0xbd, 0x3e, 0x69, 0xe9, 0x9c, 0x37, 0xe3, 0x14, 0x50, 0xba,
  0xf6, 0x3b, 0x32, 0xbd, 0xd7, 0x8a, 0xb0, 0xbd, 0x63, 0x1e, 0xc8, 0xba,
  0xee, 0x57, 0x38, 0xbe, 0x01, 0x02, 0xa2, 0x3d, 0xe9, 0x5f, 0x81, 0xbc,
  0x07, 0xa9, 0xfb, 0xbb, 0x08, 0x8f, 0xf4, 0xbc, 0x77, 0x57, 0xff, 0xbd,
  0xdb, 0x15, 0x9a, 0x3d, 0x89, 0xc0, 0x10, 0x3f, 0x8a, 0x72, 0x84, 0x3e,
  0x0f, 0x63, 0xe7, 0xbd, 0x3a, 0xdd, 0x1a, 0xbe, 0x27, 0x93, 0x40, 0xbe,
  0xaa, 0xfe, 0x1f, 0x3e, 0x29, 0x33, 0xa5, 0x3d, 0x89, 0xf8, 0xfc, 0x3d,
  0xc9, 0xe9, 0x53, 0xbd, 0x8f, 0x90, 0x2a, 0x3e, 0x86, 0xe1, 0xa6, 0x3d,
  0xa6, 0x3f, 0x87, 0xbd, 0x1f, 0x14, 0xdf, 0x3d, 0xd1, 0xfe, 0xfe, 0x3d,
  0x22, 0xf9, 0x68, 0xbd, 0xac, 0x12, 0x05, 0x3f, 0x7c, 0xa6, 0x99, 0x3e,
  0xb9, 0x60, 0x2f, 0x3d, 0x26, 0x07, 0x63, 0xbe, 0x7a, 0x45, 0x1f, 0xbe,
  0x21, 0x04, 0x66, 0x3e, 0x05, 0xd6, 0xb1, 0xbe, 0x96, 0xfd, 0x8d, 0xbe,
  0x31, 0xf6, 0xb8, 0x3d, 0x9e, 0xe0, 0xff, 0xff, 0x10, 0x00, 0x00, 0x00,
  0x07, 0x00, 0x00, 0x00, 0x1c, 0x00, 0x00, 0x00, 0x38, 0x00, 0x00, 0x00,
  0x04, 0x00, 0x00, 0x00, 0x08, 0x00, 0x00, 0x00, 0x04, 0x00, 0x00, 0x00,
  0x03, 0x00, 0x00, 0x00, 0x01, 0x00, 0x00, 0x00, 0x18, 0x00, 0x00, 0x00,
  0x73, 0x65, 0x71, 0x75, 0x65, 0x6e, 0x74, 0x69, 0x61, 0x6c, 0x2f, 0x63,
  0x6f, 0x6e, 0x76, 0x32, 0x64, 0x2f, 0x43, 0x6f, 0x6e, 0x76, 0x32, 0x44,
  0x00, 0x00, 0x00, 0x00, 0x98, 0xe0, 0xff, 0xff, 0x8e, 0xe1, 0xff, 0xff,
  0x04, 0x00, 0x00, 0x00, 0x00, 0x01, 0x00, 0x00, 0xbb, 0x8d, 0xe6, 0xbe,
  0x62, 0x70, 0x39, 0xbe, 0xe9, 0xfb, 0xcd, 0x3d, 0x54, 0x3b, 0xce, 0x3e,
  0x9e, 0xe0, 0x6a, 0x3e, 0x0f, 0x8c, 0x97, 0x3e, 0xc3, 0xf1, 0xae, 0x3d,
  0x37, 0x55, 0x87, 0x3d, 0x8f, 0xd4, 0xe4, 0xbd, 0xe7, 0x4b, 0xa0, 0x3e,
  0x19, 0x53, 0x32, 0x3e, 0x77, 0x19, 0xf0, 0x3d, 0x2d, 0xc7, 0x8b, 0xbe,
  0x43, 0x00, 0x05, 0x3e, 0xbf, 0x53, 0x1a, 0x3e, 0xba, 0xb1, 0x13, 0xbe,
  0x05, 0x10, 0xea, 0xbe, 0xeb, 0x5e, 0x8c, 0xbd, 0x3f, 0xdf, 0x49, 0x3e,
  0x48, 0xec, 0xd5, 0x3e, 0x5f, 0x84, 0xa3, 0x3e, 0xfd, 0xfd, 0xec, 0xbe,
  0x6e, 0x22, 0xc8, 0x3d, 0x51, 0x1d, 0x16, 0x3d, 0x7b, 0x77, 0xed, 0xbe,
  0xe1, 0x8c, 0x95, 0x3e, 0x42, 0x3b, 0x67, 0xbf, 0x8a, 0xee, 0x47, 0x3e,
  0xa5, 0xd1, 0x9e, 0xbe, 0xc9, 0xff, 0xed, 0xbf, 0x71, 0xd3, 0x45, 0x3e,
  0x8a, 0x9b, 0x36, 0xbe, 0x2e, 0x01, 0x78, 0xbd, 0x05, 0x50, 0x9d, 0xbe,
  0xed, 0x37, 0x16, 0x3e, 0x1a, 0x3b, 0x18, 0x3e, 0x92, 0x7d, 0xe8, 0xbe,
  0x73, 0xb1, 0x0f, 0xbf, 0x7a, 0x30, 0xbb, 0x3e, 0xcf, 0x74, 0x43, 0xbe,
  0x26, 0xac, 0x46, 0xbe, 0xe7, 0xd7, 0x3b, 0x3e, 0x4e, 0xa5, 0xa7, 0x3e,
  0xfa, 0x24, 0xcd, 0xbd, 0xfc, 0x43, 0xf0, 0xbe, 0xb1, 0xeb, 0x96, 0xbf,
  0xb8, 0xc9, 0x8b, 0xbe, 0xa1, 0xca, 0x37, 0xbe, 0x9a, 0x54, 0x57, 0xbd,
  0xff, 0xa2, 0x48, 0xbd, 0x57, 0x61, 0xb5, 0x3d, 0xa1, 0xfb, 0xb2, 0x3e,
  0xbf, 0xf9, 0x94, 0x3e, 0x9e, 0x9e, 0x71, 0xbe, 0xe2, 0x4b, 0x34, 0x3e,
  0x8e, 0x17, 0x9e, 0x3d, 0x8b, 0x49, 0x92, 0xbd, 0x6e, 0x7c, 0x70, 0x3e,
  0xec, 0x5d, 0x3c, 0x3e, 0xbb, 0xde, 0x33, 0x3e, 0xc9, 0xf0, 0x9b, 0xbe,
  0xea, 0x7f, 0x46, 0xbe, 0xc4, 0x94, 0x18, 0x3e, 0xbd, 0xf0, 0x80, 0xbe,
  0xf6, 0xe1, 0xff, 0xff, 0x10, 0x00, 0x00, 0x00, 0x06, 0x00, 0x00, 0x00,
  0x14, 0x00, 0x00, 0x00, 0x30, 0x00, 0x00, 0x00, 0x02, 0x00, 0x00, 0x00,
  0x04, 0x00, 0x00, 0x00, 0x10, 0x00, 0x00, 0x00, 0x19, 0x00, 0x00, 0x00,
  0x73, 0x65, 0x71, 0x75, 0x65, 0x6e, 0x74, 0x69, 0x61, 0x6c, 0x2f, 0x64,
  0x65, 0x6e, 0x73, 0x65, 0x5f, 0x31, 0x2f, 0x4d, 0x61, 0x74, 0x4d, 0x75,
  0x6c, 0x00, 0x00, 0x00, 0xe8, 0xe1, 0xff, 0xff, 0xde, 0xe2, 0xff, 0xff,
  0x04, 0x00, 0x00, 0x00, 0x00, 0x1c, 0x00, 0x00, 0x59, 0x42, 0x5a, 0xbc,
  0xd4, 0xde, 0x2c, 0x3e, 0xc0, 0x7d, 0xb1, 0x3a, 0x70, 0x5e, 0xef, 0xbb,
  0x28, 0xe8, 0x8c, 0xbe, 0x64, 0x7b, 0x07, 0x3e, 0x04, 0xe4, 0x65, 0xbe,
  0x40, 0xb5, 0x83, 0xbe, 0x31, 0x9d, 0x48, 0xbe, 0x4c, 0x3f, 0xc7, 0xbd,
  0x87, 0x33, 0x06, 0xbe, 0x83, 0x79, 0xa7, 0x3c, 0x50, 0x1e, 0x84, 0xbe,
  0x0b, 0x46, 0xc7, 0xbd, 0xbf, 0x46, 0xff, 0xbd, 0x14, 0x67, 0x23, 0xbe,
  0x6d, 0xc4, 0xb3, 0xbd, 0xa7, 0x08, 0x0a, 0xbd, 0x87, 0x13, 0x5c, 0xbe,
  0xb7, 0x6d, 0x43, 0xbd, 0xd7, 0x8b, 0x77, 0xbe, 0x06, 0x5e, 0xcd, 0x3d,
  0x59, 0xee, 0x19, 0xbd, 0xbc, 0x6f, 0x03, 0xbe, 0xb7, 0x7d, 0xad, 0x3d,
  0xa7, 0x6f, 0xda, 0x3c, 0x24, 0x5c, 0x97, 0xbc, 0x47, 0x55, 0xa0, 0x3d,
  0x4d, 0xd8, 0x90, 0xbe, 0x2f, 0xac, 0x6f, 0x3e, 0x78, 0x9a, 0x79, 0x3d,
  0xe7, 0x49, 0x95, 0xbe, 0x2d, 0x8d, 0x29, 0x3e, 0x6b, 0xdb, 0x39, 0xbe,
  0xb7, 0x05, 0x09, 0x3c, 0x57, 0xe6, 0x9b, 0xbd, 0xfe, 0x06, 0x51, 0xbe,
  0x9c, 0xf5, 0x73, 0x3c, 0x4c, 0x35, 0x34, 0xbe, 0x5f, 0xcb, 0x2d, 0xbe,
  0xb1, 0x83, 0xc0, 0xbd, 0x06, 0x47, 0xf7, 0xbd, 0xea, 0xbe, 0xa6, 0xbe,
  0x24, 0x2e, 0xe4, 0x3d, 0xe1, 0xad, 0xa3, 0x3d, 0x35, 0x35, 0xa3, 0x3d,
  0xf6, 0xa1, 0xfa, 0xbc, 0x55, 0x8e, 0x90, 0x3e, 0xee, 0x8c, 0x5e, 0x3e,
  0x85, 0xf4, 0x55, 0x3d, 0x08, 0xf7, 0xd3, 0x3c, 0xa3, 0x47, 0x37, 0xbc,
  0xc2, 0xab, 0x80, 0xbe, 0xab, 0xf8, 0xf0, 0x3d, 0x0a, 0x15, 0xa6, 0xbe,
  0x9a, 0x9a, 0xda, 0xbe, 0xe3, 0xab, 0x8a, 0x3d, 0x35, 0xdc, 0x0d, 0x3e,
  0x13, 0xee, 0x53, 0xbe, 0x9f, 0xde, 0x77, 0x3e, 0x4e, 0xa2, 0xe4, 0xbd,
  0xb8, 0x21, 0x95, 0x3d, 0xa1, 0x50, 0xa1, 0x3e, 0x88, 0xa2, 0x16, 0x3e,
  0x88, 0xdd, 0x68, 0xbd, 0x28, 0x1a, 0x0e, 0x3e, 0x14, 0x91, 0x14, 0x3c,
  0x80, 0xab, 0x4c, 0xbd, 0x17, 0x34, 0x8e, 0x3d, 0x32, 0x4b, 0xee, 0xbd,
  0x96, 0x1b, 0x8d, 0xbe, 0x16, 0x23, 0xf1, 0xbe, 0x1f, 0x25, 0x4d, 0xbe,
  0xc2, 0xce, 0x77, 0xbe, 0x2c, 0x00, 0xb2, 0xbd, 0x8a, 0x93, 0xf9, 0x3d,
  0x05, 0xdc, 0x40, 0xbe, 0xf7, 0x8b, 0xd6, 0xbc, 0xb9, 0x6c, 0x1d, 0xbd,
  0x7d, 0xdf, 0x38, 0xbd, 0xc3, 0xc9, 0x7c, 0xbe, 0x66, 0x47, 0x16, 0x3d,
  0xdd, 0x38, 0x84, 0xbc, 0xa6, 0x5b, 0x00, 0x3e, 0x95, 0x5e, 0x08, 0xbe,
  0xe3, 0x05, 0x08, 0xbb, 0x6b, 0x1a, 0x4a, 0xbb, 0x36, 0x7d, 0x87, 0xbe,
  0x98, 0xce, 0x95, 0x3d, 0x9b, 0x28, 0x38, 0xbc, 0xf9, 0x28, 0x9e, 0xbe,
  0x83, 0xde, 0xfa, 0x3d, 0xae, 0x34, 0x95, 0xbe, 0x21, 0x05, 0xdf, 0xbd,
  0x39, 0x32, 0xf6, 0xbd, 0xeb, 0xb4, 0xd7, 0x3d, 0xa5, 0x0f, 0xb2, 0xba,
  0x2e, 0xdc, 0x2e, 0xbe, 0xd7, 0xab, 0x44, 0xbd, 0xb5, 0x63, 0xc5, 0x3d,
  0x5e, 0x87, 0x0b, 0xbe, 0xea, 0x42, 0xf2, 0x3b, 0x9f, 0x16, 0xcb, 0xbe,
  0xc4, 0x9f, 0xad, 0xbe, 0xe5, 0x83, 0x73, 0x3d, 0x7f, 0xf9, 0x16, 0x3d,
  0xab, 0xc3, 0xd2, 0xbb, 0xe7, 0xef, 0x07, 0x3e, 0x9e, 0x9b, 0xdc, 0xbe,
  0x48, 0x40, 0xfe, 0x3c, 0xae, 0x1f, 0x2c, 0xbe, 0xd2, 0x94, 0x49, 0xbe,
  0xb0, 0x1b, 0x74, 0x3c, 0xc6, 0x74, 0x0f, 0xbe, 0xc8, 0x39, 0xac, 0x3d,
  0x03, 0xb5, 0x10, 0x3e, 0xf2, 0xbd, 0x6d, 0xbe, 0xd4, 0x40, 0xca, 0xbd,
  0x41, 0xf4, 0x81, 0x3d, 0xc3, 0x53, 0xd6, 0xbd, 0x64, 0xfa, 0xc3, 0xbc,
  0x1e, 0xed, 0x52, 0x3e, 0x6d, 0x14, 0xca, 0xbe, 0x7d, 0xbe, 0x27, 0x3e,
  0x04, 0x34, 0x85, 0x3b, 0xc0, 0x10, 0xb7, 0xbd, 0x2a, 0x1e, 0x69, 0xbe,
  0xa2, 0x3f, 0x5c, 0x3d, 0xbb, 0xfa, 0x9e, 0x3d, 0xfd, 0x6b, 0x03, 0xbe,
  0x68, 0xa5, 0xde, 0xbd, 0xf7, 0x5a, 0x12, 0x3e, 0xd7, 0x8a, 0xc9, 0xbe,
  0x93, 0x49, 0x94, 0x3d, 0x74, 0x3d, 0x0c, 0xbe, 0x34, 0x4a, 0x75, 0x3d,
  0x47, 0x6c, 0xa0, 0x3d, 0x00, 0x7f, 0xc9, 0xbd, 0x2c, 0x22, 0x98, 0xbe,
  0x06, 0x20, 0x11, 0x3e, 0x05, 0x56, 0xdd, 0xbc, 0x35, 0x1c, 0xb9, 0xbd,
  0xcb, 0x57, 0x2d, 0xbe, 0x85, 0x3d, 0x67, 0x3d, 0xdd, 0x04, 0xb2, 0xbc,
  0x27, 0xbb, 0x58, 0x3d, 0xf3, 0xe0, 0x93, 0x3e, 0xda, 0x84, 0xff, 0x3d,
  0xba, 0x16, 0xa8, 0xbe, 0x1f, 0x20, 0x10, 0xbe, 0x9e, 0x57, 0x82, 0xbe,
  0xd1, 0xae, 0x26, 0x3d, 0x06, 0x62, 0xe5, 0xbc, 0xc7, 0xd6, 0xc0, 0xbd,
  0x64, 0xba, 0x77, 0xbe, 0x83, 0xc0, 0xe6, 0x3d, 0xe1, 0x5b, 0xf4, 0x3a,
  0x83, 0xb9, 0x9f, 0x3d, 0x36, 0x62, 0x7e, 0xbd, 0xda, 0x23, 0xbc, 0x3e,
  0x3b, 0x2e, 0x8f, 0x3e, 0x1c, 0xda, 0x8e, 0x3e, 0x5e, 0xe0, 0x0c, 0x3c,
  0x1f, 0xbc, 0xaf, 0x3d, 0xdd, 0x62, 0xb2, 0xbe, 0x0f, 0xdf, 0x5e, 0xbd,
  0xbb, 0x17, 0x28, 0xbe, 0xde, 0xc4, 0x4d, 0xbe, 0x6e, 0x6d, 0x97, 0x3d,
  0x35, 0x98, 0x35, 0xbe, 0x40, 0x4d, 0x7c, 0xbe, 0x65, 0x21, 0x5d, 0x3e,
  0xca, 0x15, 0xcd, 0xbd, 0x96, 0x5e, 0x7d, 0x3d, 0xf0, 0xc2, 0x16, 0x3d,
  0x76, 0x5c, 0xd2, 0x3e, 0x61, 0xcb, 0x07, 0xbd, 0x86, 0x40, 0xc7, 0xbc,
  0x33, 0x64, 0x00, 0xbe, 0xd1, 0x9a, 0x65, 0x3e, 0x09, 0x59, 0x35, 0xbe,
  0x4b, 0x07, 0xd6, 0x3d, 0xcc, 0x47, 0xd8, 0xbe, 0x52, 0x78, 0x71, 0xbe,
  0x99, 0xea, 0xbd, 0xbd, 0xb5, 0x25, 0x83, 0xbd, 0x69, 0xed, 0xec, 0xbd,
  0xe3, 0xb8, 0x0d, 0x3e, 0x37, 0x7d, 0x3e, 0xbe, 0x87, 0xd4, 0x15, 0x3e,
  0x22, 0x83, 0x0d, 0x3c, 0x57, 0xbd, 0x70, 0x3e, 0x74, 0x52, 0x05, 0xbd,
  0x65, 0xd5, 0x14, 0xbe, 0xb4, 0x29, 0x07, 0xbe, 0xdd, 0x97, 0x99, 0x3c,
  0x06, 0xf0, 0x62, 0xbe, 0x11, 0x08, 0xb4, 0x3a, 0x5b, 0xc0, 0xde, 0xbe,
  0x8c, 0xaf, 0x35, 0xbd, 0x9f, 0xca, 0x72, 0x3d, 0x73, 0x5d, 0x19, 0xbe,
  0x32, 0xfc, 0x17, 0xbf, 0xc2, 0x09, 0xc9, 0x3d, 0xad, 0x26, 0x9f, 0xbd,
  0x34, 0x24, 0x1a, 0xbd, 0x17, 0x79, 0xa3, 0x3d, 0xf3, 0x62, 0xa0, 0x3d,
  0x6c, 0xce, 0xf5, 0x3c, 0xe2, 0xb8, 0x65, 0xbe, 0x8a, 0x89, 0xc7, 0x3c,
  0x8b, 0x93, 0xfa, 0x3c, 0x7f, 0xfc, 0x93, 0xbe, 0x70, 0x87, 0xfc, 0x3d,
  0x46, 0x6c, 0x09, 0xbf, 0xd7, 0xc5, 0xae, 0x3d, 0x66, 0x01, 0xc9, 0xbe,
  0x84, 0x76, 0x84, 0xbe, 0xdd, 0xfe, 0xe6, 0xbe, 0x77, 0xec, 0x77, 0x3e,
  0xe6, 0x68, 0x02, 0xbe, 0x10, 0x47, 0x9e, 0xbd, 0x02, 0xe7, 0xca, 0xbe,
  0x2b, 0x02, 0x07, 0x3e, 0x67, 0x07, 0x94, 0xbc, 0x4c, 0x25, 0x16, 0xbe,
  0x3b, 0x82, 0x3d, 0xbe, 0xa0, 0x45, 0xf6, 0xbe, 0xc9, 0xe1, 0x47, 0xbe,
  0x37, 0x9e, 0xe1, 0xbe, 0x35, 0xdb, 0x32, 0xbf, 0x65, 0x56, 0x02, 0xbe,
  0xd6, 0x84, 0xe7, 0xbe, 0x7b, 0x60, 0x1e, 0xbf, 0x09, 0x73, 0x49, 0xbe,
  0x2a, 0xea, 0xaf, 0xbd, 0xc7, 0x28, 0x01, 0xbf, 0x78, 0x0a, 0x45, 0xbe,
  0x10, 0xf4, 0x83, 0x3d, 0x0c, 0xc9, 0xc6, 0xbe, 0xb1, 0x53, 0x01, 0xbe,
  0xb3, 0x54, 0x22, 0xbc, 0x52, 0xd5, 0x03, 0xbe, 0x68, 0x29, 0xa5, 0xbe,
  0xe8, 0xfa, 0xd8, 0xbd, 0xb4, 0x3d, 0x6b, 0xbe, 0x18, 0xca, 0xf9, 0xbe,
  0x99, 0x20, 0xbe, 0xbc, 0x2f, 0x2b, 0x8c, 0xbe, 0xd6, 0x92, 0xda, 0xbe,
  0x05, 0xe0, 0xb5, 0x3c, 0x4d, 0x11, 0x9e, 0x3d, 0xe1, 0x85, 0x1c, 0xbf,
  0xed, 0x43, 0x90, 0xbd, 0xe7, 0x25, 0x9a, 0x38, 0x22, 0x18, 0xb1, 0xbe,
  0xd7, 0x65, 0xdf, 0xbd, 0x8a, 0x72, 0xec, 0xbd, 0x1a, 0xf7, 0x81, 0x3d,
  0xd2, 0x1b, 0x59, 0xbd, 0x92, 0xd7, 0xe2, 0xbd, 0x41, 0x80, 0xda, 0x3c,
  0x8f, 0x3d, 0xf4, 0xbe, 0x6a, 0x59, 0x69, 0xbc, 0x74, 0x4e, 0x26, 0xbe,
  0x79, 0xd6, 0x0b, 0xbf, 0x62, 0x60, 0x07, 0xbd, 0x4b, 0xf5, 0x5d, 0x3c,
  0x6e, 0xae, 0xcf, 0xbe, 0xf5, 0x77, 0x8f, 0xbe, 0xf1, 0x46, 0x2d, 0xbe,
  0xf8, 0xfa, 0xd3, 0xbe, 0xa8, 0xeb, 0x0f, 0xbe, 0x6f, 0x41, 0x7f, 0xbc,
  0x30, 0xc1, 0x95, 0xbe, 0x0f, 0xff, 0x8f, 0x3d, 0xb0, 0x32, 0xb0, 0xbd,
  0x5c, 0x93, 0x9c, 0xbe, 0x3c, 0xa7, 0xa4, 0xbe, 0x7e, 0xa9, 0x7b, 0x3c,
  0x60, 0x5b, 0x67, 0xbe, 0xe0, 0xc2, 0x22, 0xbf, 0xb2, 0x71, 0xa5, 0xbe,
  0x52, 0x5e, 0x24, 0xbe, 0x09, 0x1c, 0xb8, 0xbe, 0xef, 0xd4, 0xed, 0xbe,
  0xc1, 0xc5, 0xe1, 0x3d, 0x5c, 0x15, 0xe5, 0xbe, 0xec, 0x5d, 0x16, 0x3e,
  0x8b, 0x07, 0x65, 0xbd, 0x1c, 0xa4, 0xad, 0x3e, 0x3d, 0x79, 0x45, 0x39,
  0x38, 0xbe, 0xae, 0xbd, 0x3e, 0xc2, 0xf9, 0xbd, 0x18, 0x87, 0x2a, 0xbe,
  0x92, 0x8c, 0xac, 0xbc, 0x35, 0x44, 0x20, 0xbe, 0xb2, 0x5d, 0xbe, 0xbe,
  0xd2, 0x49, 0x58, 0xbe, 0x6e, 0xc6, 0xb3, 0xbe, 0x75, 0x5b, 0xec, 0xbe,
  0x5d, 0xe3, 0x95, 0x3d, 0xb5, 0x39, 0xdd, 0xbc, 0x9b, 0x59, 0xad, 0xbe,
  0x18, 0xde, 0xed, 0x3d, 0x5b, 0x11, 0x87, 0xbe, 0x68, 0x8d, 0x1a, 0x3f,
  0x28, 0x02, 0xc7, 0xbd, 0xb9, 0xfb, 0x22, 0xbd, 0x5a, 0xfe, 0xfc, 0x3e,
  0x16, 0x10, 0x7d, 0xbe, 0xbd, 0x09, 0xa2, 0x3d, 0x5b, 0xbe, 0x5c, 0xbc,
  0xc1, 0xde, 0x65, 0xbe, 0x31, 0x43, 0xdb, 0xbe, 0x87, 0x0e, 0xbe, 0xbe,
  0x18, 0x2e, 0x1c, 0x3e, 0x19, 0xeb, 0x27, 0x3e, 0x28, 0x26, 0xd4, 0xbd,
  0xd7, 0x47, 0x70, 0x3d, 0x82, 0x93, 0xed, 0x3d, 0x80, 0xcd, 0xb5, 0x3d,
  0x9f, 0xcf, 0xea, 0x3d, 0x21, 0xd8, 0x1c, 0x3e, 0xd3, 0x0d, 0x38, 0xbe,
  0x17, 0x2c, 0xe0, 0x3d, 0x7e, 0x30, 0x2b, 0x3e, 0xd8, 0x6e, 0x85, 0x3c,
  0x5f, 0x75, 0xaa, 0x3d, 0x00, 0xb2, 0x48, 0xbd, 0xd5, 0xbc, 0x82, 0x3c,
  0xf7, 0x4f, 0x96, 0xbd, 0x2b, 0x76, 0x19, 0x3d, 0x17, 0x5f, 0x56, 0x3e,
  0x5b, 0xf4, 0x0b, 0x3e, 0x50, 0x64, 0xdf, 0x3d, 0x50, 0xf3, 0x94, 0x3d,
  0xd6, 0xfa, 0x0f, 0x3e, 0xa0, 0x05, 0x3b, 0x3e, 0x7f, 0x66, 0x30, 0x3d,
  0x80, 0xae, 0xd2, 0xbc, 0x27, 0x2a, 0xc5, 0x3e, 0xdd, 0x9c, 0xa2, 0xbd,
  0x1b, 0x52, 0x07, 0xbd, 0xff, 0x57, 0x8d, 0x3d, 0x3b, 0x90, 0x94, 0xbe,
  0x62, 0x09, 0x2e, 0x3e, 0x92, 0xdd, 0x36, 0xbe, 0xbf, 0x84, 0x82, 0x3e,
  0x11, 0xf0, 0x13, 0x3d, 0x6a, 0xf1, 0x0b, 0x3f, 0x64, 0x8e, 0x82, 0x3d,
  0xea, 0x3b, 0x97, 0x3e, 0x3c, 0x1f, 0x0a, 0x3e, 0x53, 0x00, 0x09, 0xbe,
  0x3b, 0x87, 0x38, 0xbe, 0xaf, 0xc0, 0x44, 0xbd, 0x36, 0x6c, 0x70, 0x3e,
  0xa1, 0xd8, 0xea, 0x3b, 0x83, 0xb0, 0x32, 0xbd, 0xc4, 0x86, 0xd0, 0xbd,
  0xe4, 0x67, 0x13, 0xbd, 0x1c, 0x99, 0x34, 0x3c, 0x5c, 0xb6, 0xb9, 0xbd,
  0x5b, 0x77, 0xa0, 0xbb, 0xd1, 0x0f, 0x45, 0x3d, 0xca, 0x92, 0x7f, 0x3f,
  0xdd, 0xd1, 0x75, 0xbe, 0xc6, 0xdd, 0x6b, 0x3c, 0x85, 0x99, 0x3b, 0x3d,
  0x75, 0x3d, 0x39, 0xbe, 0xb8, 0xc3, 0x07, 0xbe, 0x00, 0x74, 0x55, 0xbd,
  0x6c, 0x7e, 0x78, 0xbd, 0xeb, 0xc3, 0x23, 0xbd, 0x14, 0x6c, 0x83, 0xbc,
  0x80, 0x87, 0x36, 0xbe, 0x11, 0x76, 0x73, 0xbd, 0x4b, 0xab, 0x11, 0x3c,
  0x60, 0x0a, 0x8e, 0x3d, 0xf2, 0x92, 0x4f, 0xbd, 0xf1, 0x71, 0xeb, 0x3d,
  0xd3, 0xc9, 0x82, 0x3f, 0x09, 0x54, 0xdf, 0xbe, 0x14, 0x32, 0x6b, 0xbd,
  0xc0, 0xb2, 0x53, 0xbd, 0x24, 0x0e, 0xa7, 0xbe, 0xbb, 0x20, 0x1b, 0x3c,
  0xeb, 0x7f, 0x8f, 0xbd, 0xa1, 0xdd, 0x61, 0xbe, 0x7d, 0x48, 0x4b, 0x3c,
  0x82, 0x65, 0x19, 0xbd, 0xd1, 0xe9, 0x7a, 0x3d, 0x47, 0x47, 0xdb, 0xbc,
  0x8c, 0x4a, 0x60, 0x3c, 0x3c, 0xf0, 0xe9, 0xbc, 0x62, 0x28, 0x89, 0xbd,
  0xf4, 0xa6, 0x14, 0x3d, 0x03, 0xc2, 0x20, 0x3f, 0xed, 0x10, 0xa1, 0xbe,
  0xfd, 0xea, 0x34, 0x3c, 0x92, 0xca, 0xf0, 0xba, 0x1c, 0xab, 0xa5, 0x3e,
  0xef, 0xdd, 0x51, 0x3d, 0xea, 0x6e, 0x3d, 0xbb, 0x64, 0xeb, 0xce, 0xbd,
  0xd4, 0x8a, 0x77, 0xbc, 0x80, 0xdb, 0x1b, 0xbd, 0xc1, 0x2e, 0xd6, 0xbc,
  0xf1, 0xd7, 0xc5, 0xbd, 0x76, 0x4e, 0xc4, 0x3b, 0x93, 0x94, 0x7e, 0xbc,
  0xbc, 0x6c, 0x9a, 0xbc, 0xe4, 0x2a, 0x3c, 0x3e, 0xde, 0x18, 0x31, 0x3f,
  0x2b, 0x4c, 0x92, 0xbe, 0x47, 0xa0, 0x43, 0x3e, 0xaf, 0xad, 0x87, 0xbd,
  0x35, 0x87, 0x1d, 0x3f, 0xb7, 0x2f, 0x99, 0x3d, 0x7f, 0x93, 0x53, 0xbd,
  0x7e, 0x51, 0x90, 0x3e, 0x57, 0x51, 0x50, 0xbd, 0xf3, 0xba, 0x0e, 0x3c,
  0x8d, 0xd4, 0xc1, 0x3d, 0x7f, 0x3a, 0x36, 0x3c, 0xf8, 0x47, 0x5d, 0xbd,
  0x4a, 0x19, 0x56, 0xbc, 0xe5, 0xc1, 0xdb, 0xbc, 0xa6, 0x80, 0x87, 0x3e,
  0x86, 0x3e, 0xb6, 0x3f, 0xb0, 0x87, 0xb6, 0xbd, 0x18, 0x0a, 0x06, 0x3e,
  0xba, 0xa3, 0xe7, 0x3c, 0x47, 0xda, 0x92, 0x3d, 0xa6, 0xde, 0xfd, 0x3d,
  0x96, 0x4e, 0x27, 0xbd, 0x27, 0x88, 0xc2, 0x3d, 0x7f, 0x87, 0x38, 0xbd,
  0x6f, 0x1d, 0xfc, 0x3c, 0x9f, 0x97, 0x63, 0xbd, 0x05, 0x36, 0xc7, 0xbd,
  0xe5, 0x0f, 0x6c, 0xbd, 0x60, 0x41, 0xa8, 0x3d, 0x2c, 0x9e, 0xc8, 0xbc,
  0x61, 0x88, 0x0a, 0x3e, 0xb3, 0x9b, 0x5e, 0x3e, 0x61, 0x94, 0x06, 0xbd,
  0xbe, 0x46, 0xf1, 0xbc, 0xef, 0xe6, 0xfe, 0x3d, 0x0e, 0x7c, 0xa9, 0x3e,
  0xa3, 0x41, 0x0c, 0x3c, 0xb8, 0xba, 0x5c, 0xbd, 0xe3, 0xca, 0xa0, 0x3c,
  0x43, 0xfb, 0xa5, 0xbe, 0x14, 0xf3, 0xac, 0x3d, 0x90, 0x6c, 0x8d, 0xbe,
  0xbe, 0xd8, 0x12, 0xbe, 0x20, 0xba, 0x1b, 0xbe, 0xf5, 0x8f, 0x9e, 0xbe,
  0xbe, 0x5b, 0x71, 0xbe, 0xba, 0x96, 0xe6, 0x3c, 0x12, 0x1b, 0x53, 0xbe,
  0x78, 0xde, 0x54, 0xbc, 0x80, 0x18, 0x05, 0xbe, 0xd5, 0xd8, 0xe4, 0xbc,
  0x66, 0xde, 0x5f, 0x3e, 0xb8, 0xdd, 0xbb, 0xbc, 0x0c, 0x57, 0x4e, 0x3a,
  0xb1, 0xa9, 0xab, 0x3e, 0x8f, 0x58, 0x4c, 0xbe, 0xeb, 0xd2, 0xa4, 0xbd,
  0xc9, 0x7d, 0x61, 0x3e, 0x69, 0xdc, 0x74, 0xbe, 0x75, 0x46, 0x84, 0x3c,
  0xb1, 0x97, 0xbb, 0x3d, 0x9a, 0xf9, 0x0b, 0xbe, 0x21, 0x97, 0x14, 0x3d,
  0xd3, 0xee, 0xed, 0xbb, 0x44, 0xb9, 0x5d, 0xbe, 0x2f, 0x85, 0xa5, 0x3e,
  0xc4, 0xbd, 0xee, 0xbd, 0x45, 0x2e, 0x26, 0x3e, 0xa9, 0x86, 0x1c, 0x3b,
  0x6e, 0x1f, 0x10, 0xba, 0xb2, 0x1e, 0x46, 0xbc, 0x37, 0xaf, 0x72, 0xbe,
  0xed, 0x91, 0xb0, 0xb9, 0x4d, 0xbc, 0xdf, 0xbd, 0x03, 0xbd, 0x90, 0xbd,
  0xc3, 0x63, 0x43, 0xbe, 0xa7, 0xca, 0xc1, 0xbc, 0xc4, 0x5b, 0x2d, 0xbe,
  0xe3, 0xae, 0x3a, 0xbd, 0x99, 0x2f, 0x5e, 0xbe, 0x62, 0x2d, 0xce, 0xbd,
  0x94, 0x28, 0x22, 0xbe, 0xb5, 0x00, 0xaa, 0x3a, 0x27, 0x87, 0x56, 0x39,
  0x5a, 0xce, 0xaa, 0x3c, 0xbb, 0xb1, 0xf9, 0x3c, 0x02, 0x43, 0x98, 0x3d,
  0x0f, 0xcb, 0xcc, 0xbe, 0x02, 0x15, 0x31, 0xbc, 0x09, 0x10, 0x19, 0xbe,
  0x39, 0x05, 0x35, 0xbd, 0x06, 0xc6, 0xd0, 0xbd, 0x20, 0xd2, 0x9c, 0xbd,
  0xf0, 0x15, 0xa0, 0xbe, 0x50, 0x62, 0x2d, 0xbe, 0x31, 0x52, 0xfa, 0xbd,
  0xfc, 0x88, 0x14, 0xbe, 0x65, 0x28, 0x0d, 0x3e, 0x2b, 0xe3, 0x70, 0x3e,
  0x78, 0x15, 0x18, 0x3f, 0x99, 0xc9, 0xb1, 0x3c, 0x2c, 0x21, 0x04, 0x3d,
  0x92, 0x66, 0xba, 0x3d, 0x3f, 0x22, 0xc7, 0xbe, 0xb0, 0xfa, 0xca, 0xbb,
  0x3f, 0xff, 0xbc, 0xbe, 0xc5, 0xb6, 0x56, 0x3d, 0xfa, 0xe2, 0x0a, 0xbe,
  0x3b, 0x7b, 0x4d, 0xbe, 0xb1, 0x05, 0x81, 0xbe, 0x7d, 0x60, 0x3e, 0xbd,
  0xea, 0x42, 0xdd, 0xbc, 0x15, 0x66, 0xf4, 0x3c, 0x13, 0x0b, 0x97, 0x3d,
  0x2c, 0x24, 0x03, 0xbe, 0x5c, 0x50, 0x35, 0x3f, 0x02, 0xc5, 0xda, 0xbd,
  0x62, 0x3e, 0x7d, 0x3c, 0x29, 0x8a, 0xcf, 0x3e, 0x6d, 0x47, 0x7c, 0xbe,
  0xcb, 0x89, 0x3d, 0x3d, 0xf4, 0x3d, 0x44, 0x3d, 0xd1, 0xca, 0x1c, 0x3e,
  0x3a, 0x90, 0x5f, 0xbe, 0xe5, 0x94, 0xad, 0xbb, 0xf5, 0x66, 0x14, 0xbd,
  0xad, 0x41, 0x8e, 0x3d, 0x3f, 0xee, 0x3d, 0xbe, 0x89, 0xc6, 0xef, 0x3d,
  0xc0, 0xd3, 0xcf, 0x3d, 0x69, 0x8e, 0x35, 0x3d, 0x2c, 0x55, 0xc8, 0x3b,
  0x71, 0x4e, 0x40, 0xbe, 0x51, 0xc2, 0xdc, 0x3c, 0x7f, 0xcc, 0x03, 0x3d,
  0x24, 0x3d, 0x96, 0xbd, 0xd4, 0xdb, 0x15, 0xbc, 0x38, 0xc2, 0x64, 0xbd,
  0xce, 0xa1, 0xcd, 0x3e, 0x12, 0x2d, 0x18, 0xbe, 0x10, 0xa2, 0x73, 0x3d,
  0xf5, 0x08, 0x9c, 0x3c, 0xc4, 0xab, 0x20, 0x3e, 0xd9, 0xf7, 0xf7, 0x3c,
  0xdb, 0xbb, 0xf5, 0x3c, 0xe5, 0x68, 0x08, 0xbd, 0x1b, 0xa2, 0x58, 0xbe,
  0x80, 0x7c, 0x11, 0xbd, 0xff, 0xec, 0x85, 0xbc, 0x2c, 0x7c, 0x5e, 0xbd,
  0xed, 0x0a, 0xd1, 0xbd, 0x7a, 0xe5, 0xe6, 0xbe, 0xf3, 0x3a, 0x9a, 0xbe,
  0x23, 0xe1, 0xf6, 0xbd, 0xce, 0xc5, 0x6d, 0x3c, 0x16, 0xde, 0xcc, 0xbd,
  0x69, 0x7a, 0x93, 0xbd, 0xdf, 0xdb, 0x9a, 0xbe, 0x36, 0x60, 0x9f, 0xbe,
  0x1e, 0x17, 0xb9, 0x3f, 0xa8, 0xf2, 0x4d, 0xbe, 0xfe, 0x8d, 0xf4, 0x3c,
  0x46, 0x0d, 0xb6, 0xbd, 0xa5, 0xdd, 0x5c, 0xbe, 0x6d, 0xa0, 0x9a, 0x3d,
  0x34, 0x3a, 0x4f, 0xbe, 0xea, 0x91, 0x53, 0xbe, 0x4e, 0x5c, 0x3c, 0xbe,
  0xa3, 0xae, 0x40, 0xbe, 0xf1, 0x83, 0x4c, 0xbe, 0x22, 0x27, 0xed, 0xbd,
  0x0e, 0xd4, 0x09, 0xbe, 0x33, 0x0c, 0xe4, 0x3b, 0x4c, 0x62, 0x31, 0xbe,
  0xe6, 0x07, 0x2f, 0xbe, 0xa6, 0x10, 0x85, 0x3f, 0xd9, 0x91, 0x2c, 0x3c,
  0x95, 0x7d, 0x16, 0x3e, 0x55, 0x0c, 0x4e, 0xbd, 0xba, 0xf2, 0x80, 0x3d,
  0x29, 0x65, 0x4a, 0xbe, 0x6b, 0x4c, 0x89, 0xbe, 0xd3, 0x2d, 0x31, 0xbe,
  0x8c, 0xa2, 0x33, 0xbd, 0xa5, 0x4b, 0xc4, 0xbd, 0x0e, 0xc8, 0x60, 0xbd,
  0xa2, 0xe4, 0xb0, 0x3d, 0xc4, 0xe3, 0x56, 0x3c, 0xe6, 0x76, 0x0e, 0x3e,
  0xe0, 0xc9, 0x4b, 0xbe, 0x16, 0x41, 0x66, 0xbc, 0xf3, 0x28, 0xe7, 0x3f,
  0xda, 0x44, 0x3b, 0xbe, 0xa8, 0xf8, 0xd3, 0x3c, 0x55, 0x0d, 0xea, 0x3d,
  0xd6, 0x01, 0x60, 0x3d, 0x9c, 0xf9, 0x9e, 0x3d, 0x68, 0x0c, 0x0a, 0xbe,
  0x65, 0x87, 0x3e, 0x3d, 0x23, 0x1a, 0x36, 0xbe, 0x22, 0x58, 0x7f, 0xbe,
  0x2c, 0x8b, 0xc9, 0x3d, 0xc9, 0x98, 0x46, 0x3d, 0x0d, 0xba, 0xf9, 0xbd,
  0x65, 0x6b, 0xed, 0xbd, 0x08, 0xc7, 0x9a, 0xbd, 0x0d, 0x0f, 0x19, 0xbe,
  0x22, 0x13, 0xc1, 0x3f, 0xf2, 0xe6, 0x2d, 0xbe, 0x34, 0x1d, 0x6a, 0xbc,
  0xa6, 0x52, 0x44, 0x3d, 0xdf, 0x9f, 0x01, 0xbe, 0x1a, 0x0f, 0x2a, 0x3e,
  0x6e, 0xb4, 0x24, 0xbe, 0x40, 0x78, 0x0d, 0x3d, 0x2f, 0x8b, 0xa3, 0xbe,
  0xfb, 0x8e, 0x9c, 0xbe, 0xdc, 0x7a, 0x61, 0x3c, 0xa3, 0xea, 0x0b, 0x3d,
  0x37, 0xa5, 0x12, 0xbd, 0xe4, 0xc1, 0xe3, 0x3d, 0x0c, 0xac, 0x67, 0xbe,
  0xa1, 0x69, 0x8f, 0xbc, 0x6c, 0xc6, 0x7b, 0x3f, 0x0e, 0x65, 0xf3, 0xbb,
  0x1b, 0xcc, 0x55, 0xbc, 0xca, 0x15, 0x49, 0xbe, 0x0a, 0x38, 0xa5, 0xbd,
  0x47, 0xb3, 0x18, 0xbe, 0x01, 0x00, 0x6c, 0xbe, 0x8d, 0x07, 0x50, 0xbc,
  0xad, 0x14, 0x5b, 0xbe, 0x77, 0xfc, 0x82, 0xbe, 0x62, 0xbe, 0x27, 0x3e,
  0x68, 0xd7, 0x52, 0xbc, 0x8b, 0x3f, 0x67, 0xbd, 0xa9, 0xc6, 0x29, 0xbe,
  0xc7, 0xda, 0x58, 0xbe, 0x6c, 0x3d, 0xcf, 0xbd, 0x1e, 0x3d, 0xd9, 0x3f,
  0x4f, 0xcf, 0xfd, 0x3c, 0x87, 0x03, 0x3d, 0xbd, 0x53, 0x83, 0x9a, 0xbe,
  0x72, 0x6c, 0x6d, 0xbe, 0xaa, 0x39, 0xce, 0x3d, 0x2a, 0x0e, 0xac, 0xbd,
  0x49, 0x32, 0xcd, 0xbd, 0xd6, 0xcf, 0x50, 0xbe, 0xfc, 0x5d, 0x57, 0xbe,
  0x86, 0xff, 0xf3, 0xbd, 0x26, 0x03, 0x49, 0x3d, 0x43, 0x7b, 0x19, 0xbe,
  0xbd, 0xe4, 0xb6, 0x3d, 0x72, 0xc4, 0x44, 0xbe, 0x20, 0x35, 0x01, 0x3d,
  0x1b, 0x3a, 0x40, 0x3e, 0x24, 0xae, 0x04, 0xbd, 0x1b, 0xa6, 0xcf, 0xbd,
  0x24, 0xec, 0x85, 0xbd, 0x69, 0xc6, 0x72, 0xbd, 0x9a, 0xe3, 0xce, 0xbe,
  0x82, 0x18, 0xca, 0xbe, 0xe7, 0x77, 0x67, 0xbe, 0xe8, 0x23, 0xb3, 0xbe,
  0x58, 0xcb, 0x3b, 0xbe, 0xc0, 0xd9, 0xa6, 0x3c, 0xc8, 0xf8, 0xa0, 0xbd,
  0x31, 0x7d, 0x83, 0xbe, 0xcf, 0x5f, 0x07, 0x3e, 0x64, 0x75, 0x16, 0xbf,
  0xa3, 0xbe, 0x68, 0x3d, 0xdf, 0xe1, 0x50, 0xbe, 0xb0, 0x06, 0x8d, 0xbe,
  0xa4, 0x74, 0x45, 0xbe, 0x42, 0x43, 0x3f, 0xbe, 0xe5, 0x21, 0x6d, 0x3e,
  0xb5, 0xa2, 0x8a, 0x3d, 0x6b, 0x9b, 0x6d, 0xbe, 0xb6, 0xb5, 0x51, 0xbe,
  0xdf, 0x2e, 0x13, 0xbe, 0xbc, 0x57, 0xae, 0xbe, 0x9b, 0x9c, 0x5a, 0xbe,
  0x31, 0x11, 0xd5, 0xbd, 0xa9, 0x53, 0x6c, 0x3d, 0xa4, 0xdc, 0x15, 0x3d,
  0xc6, 0x12, 0xd7, 0xbe, 0xac, 0x27, 0x8e, 0xbe, 0x89, 0x67, 0xae, 0xbd,
  0x80, 0x59, 0x92, 0xbd, 0xdf, 0x9f, 0x95, 0xbd, 0x7d, 0x14, 0x03, 0xbe,
  0xf9, 0xea, 0x36, 0xbe, 0xc0, 0x17, 0xba, 0xbd, 0x70, 0x36, 0xd7, 0xbd,
  0xae, 0x01, 0xbb, 0x3d, 0xe5, 0x62, 0x86, 0x3e, 0x0e, 0xa5, 0x91, 0xbe,
  0x96, 0xe0, 0x9d, 0xbd, 0x74, 0xa0, 0x23, 0x3b, 0x4c, 0xcc, 0x3b, 0x3e,
  0xeb, 0x8b, 0xce, 0x3d, 0xa5, 0x69, 0x93, 0xbd, 0x1d, 0x1a, 0xc7, 0xbd,
  0x32, 0x7b, 0x45, 0xbe, 0xb6, 0x09, 0xb7, 0xbd, 0x25, 0x3b, 0xa4, 0x3c,
  0x53, 0x12, 0xd8, 0xbc, 0xdb, 0xda, 0x11, 0xbd, 0xf2, 0x7b, 0xb6, 0x3c,
  0x29, 0x6a, 0xfe, 0xbc, 0x15, 0x78, 0x23, 0xbe, 0x22, 0x87, 0x54, 0xbc,
  0xe7, 0x16, 0x33, 0xbe, 0x29, 0x8a, 0x8d, 0xbe, 0x26, 0x9c, 0xe8, 0xbc,
  0xe2, 0x0b, 0x4c, 0x3d, 0x94, 0x4f, 0x49, 0x3d, 0x59, 0xd5, 0x3f, 0x3e,
  0xd4, 0x59, 0x05, 0x3e, 0x33, 0x88, 0xdd, 0xbd, 0x0f, 0xb6, 0x05, 0xbe,
  0xc5, 0x85, 0x2e, 0x3e, 0xfb, 0x54, 0x6a, 0xbe, 0x8a, 0xbc, 0x1b, 0xbe,
  0x73, 0xf0, 0x22, 0xbe, 0x2b, 0x5b, 0x0d, 0x3e, 0xe3, 0x82, 0xa0, 0x3d,
  0x1f, 0xd1, 0x28, 0xbd, 0x54, 0x81, 0x8b, 0xbe, 0xdd, 0xb3, 0x91, 0x3d,
  0x8a, 0x31, 0xb3, 0xbd, 0x75, 0x6f, 0xcc, 0x3d, 0x9a, 0xdd, 0xbc, 0x3d,
  0x49, 0x29, 0x90, 0xbd, 0x16, 0x6a, 0x8e, 0x3d, 0xee, 0x87, 0x4f, 0x3b,
  0x7c, 0x81, 0x83, 0x3c, 0xff, 0xd3, 0x38, 0xbe, 0xaa, 0xa8, 0x9d, 0xbe,
  0x28, 0x8e, 0xea, 0xbd, 0x86, 0xdc, 0x97, 0xbd, 0x8f, 0x35, 0x58, 0xbd,
  0xa6, 0x91, 0x91, 0xbe, 0xd3, 0xc6, 0xdb, 0xbc, 0x60, 0x92, 0xbe, 0xbe,
  0x63, 0x4a, 0xd7, 0xbd, 0xea, 0xda, 0x37, 0xbd, 0xbd, 0xa6, 0x3e, 0x3e,
  0xa2, 0x5f, 0x80, 0xbe, 0xfc, 0x47, 0xe0, 0x3d, 0xbf, 0x1b, 0x6f, 0xbe,
  0x4e, 0xd6, 0x41, 0xbe, 0x8e, 0xa0, 0x04, 0xbd, 0xef, 0x4b, 0x5f, 0xbe,
  0x54, 0x89, 0xf0, 0xbd, 0x39, 0xe6, 0xd1, 0xbb, 0x94, 0xc3, 0x67, 0x3c,
  0xcc, 0x3f, 0xa5, 0x3d, 0xa0, 0x97, 0xaa, 0xbd, 0xfb, 0x0a, 0x6a, 0x3d,
  0x48, 0x1a, 0xa9, 0xbd, 0x9a, 0xe9, 0xad, 0x3d, 0x09, 0x53, 0x9d, 0xbd,
  0xc1, 0x5e, 0x87, 0x3d, 0x24, 0x9e, 0x1c, 0x3d, 0x9d, 0xb4, 0x49, 0x3d,
  0x59, 0xe5, 0xba, 0xbd, 0x38, 0x63, 0x13, 0x3d, 0x09, 0xae, 0x26, 0xbe,
  0x28, 0x01, 0xa3, 0xbe, 0xdf, 0x64, 0x58, 0xbd, 0xd0, 0x0b, 0x26, 0x3a,
  0x9c, 0x94, 0x10, 0x3f, 0xf4, 0x03, 0x75, 0xbe, 0x2b, 0x91, 0x02, 0x3e,
  0x80, 0x30, 0x44, 0xbe, 0x59, 0xf1, 0x0f, 0xbe, 0x2d, 0xe1, 0xe3, 0xbd,
  0x06, 0x51, 0xe2, 0x3e, 0x03, 0x5a, 0x5e, 0xbc, 0x73, 0xfa, 0x13, 0x3d,
  0x39, 0xa8, 0x87, 0xbe, 0x78, 0x87, 0xe4, 0xbd, 0x72, 0xf1, 0x24, 0xbe,
  0x92, 0x59, 0x01, 0xbd, 0x1a, 0xf9, 0x30, 0x3d, 0x8d, 0x4e, 0x8d, 0xbe,
  0x32, 0xff, 0x90, 0xbd, 0x1c, 0x53, 0xf9, 0x3e, 0x9e, 0x8d, 0xb5, 0xbd,
  0x64, 0xbd, 0x06, 0x3c, 0xc6, 0x83, 0x58, 0xbe, 0xeb, 0xb8, 0xa2, 0x3d,
  0x9d, 0x3a, 0x74, 0x3c, 0xf1, 0x8a, 0x5c, 0x3e, 0x4f, 0x86, 0xa0, 0x3c,
  0x3e, 0x52, 0x9d, 0x3d, 0xc1, 0x0b, 0x01, 0xbe, 0x43, 0x11, 0xb1, 0xbd,
  0x31, 0xd4, 0x8c, 0xbe, 0x26, 0x72, 0x8d, 0x3e, 0x6b, 0xc8, 0xf1, 0x3d,
  0xb2, 0x9e, 0x67, 0x3d, 0x8f, 0x46, 0x73, 0xbc, 0x3a, 0x4e, 0xf1, 0x3e,
  0x99, 0xe8, 0x22, 0xbe, 0xf1, 0x38, 0x0d, 0x3e, 0xce, 0xba, 0x18, 0xbd,
  0x38, 0xc9, 0x7c, 0xbd, 0x99, 0xce, 0x1a, 0xbe, 0xdf, 0xf4, 0x65, 0x3e,
  0xd5, 0x99, 0x18, 0x3c, 0x0d, 0x55, 0x80, 0x3d, 0x98, 0x7a, 0x29, 0xbc,
  0xbe, 0x28, 0x05, 0x3e, 0x7d, 0x21, 0x4f, 0xbe, 0x21, 0x84, 0x2d, 0x3e,
  0x84, 0x5d, 0x26, 0x3d, 0x2a, 0x65, 0x4d, 0x3e, 0x33, 0x29, 0x01, 0x3e,
  0x46, 0x61, 0x89, 0x3e, 0x43, 0x1e, 0xd0, 0xbd, 0x47, 0x91, 0xab, 0x3e,
  0x49, 0xb9, 0x87, 0xbe, 0xcc, 0xbf, 0x8d, 0x3e, 0x77, 0xca, 0x6f, 0x3e,
  0x1e, 0xd1, 0x55, 0x3e, 0xf5, 0x27, 0x4a, 0xbe, 0xf7, 0x60, 0x1f, 0x3e,
  0x88, 0xd1, 0x84, 0x3d, 0x28, 0xa7, 0xa1, 0x3d, 0x83, 0x96, 0x15, 0xbe,
  0xa6, 0x9f, 0x94, 0x3e, 0x94, 0xf5, 0x57, 0x3d, 0x1f, 0xf1, 0xdd, 0x3d,
  0x50, 0x99, 0xa7, 0x3b, 0x26, 0x25, 0x1d, 0xbd, 0x25, 0xa6, 0x1f, 0xbd,
  0x71, 0x12, 0xbb, 0x3e, 0xfe, 0x52, 0x11, 0xbe, 0x6d, 0x3f, 0x8a, 0x3d,
  0x70, 0x19, 0x4f, 0x3e, 0x2a, 0x93, 0x24, 0x3e, 0xdc, 0x04, 0x57, 0xbd,
  0xdb, 0x44, 0xca, 0x3d, 0x2b, 0x2b, 0x89, 0xbd, 0x33, 0x87, 0x60, 0xbe,
  0x04, 0x44, 0x7b, 0xbd, 0xcc, 0xfa, 0xa4, 0x3e, 0xe0, 0xbd, 0xbf, 0xbd,
  0xd6, 0x2c, 0x3c, 0x3d, 0xa2, 0xb5, 0xb2, 0x3d, 0x2a, 0x9d, 0xfe, 0x3c,
  0x8d, 0xd1, 0x44, 0xbd, 0x9f, 0xff, 0x03, 0xbe, 0x81, 0x93, 0x32, 0xbe,
  0xa2, 0x6c, 0x0d, 0xbe, 0x9d, 0xc8, 0x57, 0xbe, 0x18, 0xc2, 0x68, 0x3e,
  0xb0, 0xfe, 0xa8, 0xbd, 0xaa, 0x6b, 0x89, 0x3d, 0xb5, 0x27, 0x4a, 0x3b,
  0x30, 0x48, 0xfb, 0xbd, 0x87, 0xda, 0x3c, 0xbe, 0x35, 0xbe, 0x02, 0x3e,
  0xcf, 0x31, 0x40, 0x3b, 0xee, 0x87, 0x88, 0x3d, 0x0c, 0x71, 0xc9, 0xbc,
  0x29, 0xd3, 0x56, 0x3e, 0x28, 0x37, 0x54, 0xbe, 0xe6, 0x5f, 0x1b, 0xbd,
  0xb4, 0x6a, 0x8a, 0xbe, 0x7f, 0x43, 0xb6, 0xbe, 0xce, 0x61, 0x50, 0xbe,
  0xb0, 0x7e, 0x01, 0x3f, 0xcb, 0x16, 0x29, 0xbe, 0x7c, 0x43, 0x58, 0x3e,
  0x67, 0x26, 0xd8, 0xbd, 0xd0, 0xe8, 0xed, 0xbd, 0xf3, 0xf7, 0xa7, 0x3e,
  0xbe, 0x82, 0x16, 0x3e, 0x2b, 0x87, 0xab, 0xbe, 0x4c, 0xd8, 0x10, 0xbe,
  0x01, 0xc8, 0xdf, 0xbc, 0x52, 0x19, 0xda, 0x3d, 0x6c, 0x4a, 0xa4, 0xbe,
  0xe7, 0x74, 0x5d, 0xbc, 0xdf, 0x4c, 0x8a, 0xbd, 0x59, 0x75, 0x05, 0xbd,
  0x9e, 0xcd, 0xd2, 0xbc, 0xb6, 0x8e, 0x80, 0x3e, 0x09, 0x8b, 0xae, 0xbd,
  0xb2, 0xa8, 0xcc, 0x3e, 0x36, 0x41, 0x1c, 0xbe, 0x42, 0xfd, 0x4e, 0xbd,
  0x1f, 0x60, 0xc4, 0xbe, 0x71, 0xb1, 0x22, 0x3c, 0x40, 0xe9, 0xb7, 0x3d,
  0x1d, 0x49, 0x55, 0xbd, 0x27, 0x10, 0x44, 0xbd, 0x65, 0x8d, 0xaf, 0x3d,
  0x9a, 0x11, 0x21, 0xbe, 0x06, 0x2c, 0x30, 0xbd, 0x3f, 0x9c, 0x2c, 0x3e,
  0xf3, 0xac, 0x20, 0xbe, 0x96, 0x9f, 0xae, 0xbd, 0x06, 0xbe, 0x9e, 0x3a,
  0xd3, 0x64, 0xae, 0xbe, 0xa5, 0x4e, 0x8a, 0x3e, 0x18, 0xf4, 0x8f, 0xbe,
  0x6a, 0x3c, 0xe2, 0xbd, 0x17, 0x57, 0x6a, 0xbd, 0xd1, 0xee, 0x2e, 0x3e,
  0x43, 0x58, 0x15, 0x3d, 0xe2, 0x94, 0x53, 0x3e, 0x13, 0x36, 0x07, 0x3f,
  0x83, 0xe2, 0xe9, 0x3e, 0x8b, 0xc7, 0x21, 0xbd, 0x73, 0x8e, 0x8f, 0xbd,
  0x26, 0x2f, 0xe6, 0xbe, 0x10, 0x9a, 0xb6, 0xbe, 0x48, 0x9a, 0x87, 0xbd,
  0xfd, 0x42, 0xcd, 0xbc, 0xb2, 0x2c, 0xe9, 0xbe, 0x0c, 0xd3, 0xc6, 0x3e,
  0x54, 0x85, 0x3f, 0xbe, 0x6a, 0xd6, 0x26, 0x3e, 0x18, 0xa4, 0xad, 0xbc,
  0x60, 0x0b, 0x2a, 0x3e, 0x3f, 0x5f, 0xb8, 0x3c, 0x5e, 0x25, 0x8c, 0x3b,
  0x89, 0x69, 0x11, 0x3e, 0x2b, 0xb5, 0xa5, 0x3e, 0x69, 0xd8, 0x70, 0xbe,
  0x7c, 0xb6, 0x43, 0x3e, 0x71, 0x08, 0x3b, 0xbe, 0xc4, 0x77, 0x3c, 0xbe,
  0x86, 0x01, 0x65, 0x3e, 0x0e, 0x26, 0x3d, 0x3e, 0x31, 0x6d, 0x09, 0xbe,
  0x62, 0x1f, 0xce, 0xbd, 0x08, 0x64, 0xa9, 0xbe, 0xa4, 0x89, 0xe4, 0x3d,
  0x9a, 0xe7, 0xe8, 0xbd, 0x77, 0x31, 0x82, 0x3e, 0x75, 0xc5, 0x9e, 0xbc,
  0x67, 0x9a, 0xa7, 0x3e, 0x67, 0x48, 0x48, 0xbd, 0xf9, 0x69, 0x82, 0x3e,
  0xaa, 0xa1, 0x5c, 0xbd, 0xa7, 0x76, 0xe9, 0x3d, 0x70, 0x0d, 0x42, 0x3c,
  0x61, 0xd7, 0x64, 0xbe, 0x37, 0x17, 0xa7, 0xbc, 0x4b, 0x95, 0x1e, 0xbd,
  0xaa, 0x76, 0x32, 0x3d, 0x81, 0xbe, 0x8d, 0x3d, 0x32, 0xfa, 0x68, 0xbe,
  0x29, 0xb7, 0x78, 0xbe, 0x17, 0x09, 0xe8, 0x3d, 0xc3, 0x3e, 0x34, 0x3e,
  0xd2, 0x04, 0x88, 0xbe, 0x3e, 0x02, 0xf0, 0x3d, 0x88, 0xb0, 0x59, 0x3e,
  0xdb, 0xeb, 0xb4, 0xbb, 0xad, 0x76, 0xbc, 0xbd, 0xc9, 0xd3, 0xbe, 0x3d,
  0x34, 0xaf, 0x95, 0xbe, 0x9f, 0xe6, 0x29, 0xbe, 0x70, 0xbd, 0x6f, 0x3e,
  0xbe, 0x41, 0x1e, 0x3e, 0x25, 0x3e, 0xb4, 0xbe, 0xd9, 0x22, 0x1f, 0xbe,
  0xe3, 0x4c, 0x50, 0xbe, 0xfe, 0x00, 0xd5, 0xbd, 0x8b, 0x02, 0xa8, 0xbd,
  0x8f, 0x08, 0x7b, 0x3c, 0x88, 0xc1, 0x99, 0xbd, 0x7a, 0x3d, 0x17, 0x3c,
  0xfe, 0xf5, 0xef, 0xbd, 0xa5, 0x3d, 0x23, 0x3e, 0x5a, 0xcd, 0x5f, 0xbe,
  0x05, 0xaa, 0x82, 0x3d, 0xce, 0xa2, 0xc2, 0xbe, 0x2a, 0xfd, 0xbe, 0xbd,
  0xda, 0xf2, 0x32, 0xbe, 0xdf, 0x0d, 0x2c, 0x3e, 0xc3, 0xf4, 0xd4, 0xbe,
  0x64, 0xab, 0xa0, 0x3e, 0x02, 0x63, 0xa7, 0xbe, 0x5f, 0x6c, 0xc5, 0xbc,
  0xd1, 0xee, 0x8e, 0xbe, 0x61, 0x01, 0x9a, 0x3d, 0x77, 0x3a, 0x87, 0x3c,
  0xda, 0x5f, 0x93, 0x3e, 0x3a, 0xac, 0x9a, 0x3c, 0xf6, 0x73, 0x03, 0xbe,
  0x51, 0xfb, 0xa5, 0xbd, 0xd9, 0xd1, 0xfb, 0xbc, 0xea, 0x31, 0xa2, 0x3d,
  0xd1, 0x16, 0x92, 0xbd, 0x6e, 0x07, 0x81, 0x3e, 0x17, 0x8a, 0x9a, 0xbe,
  0xb0, 0x23, 0xab, 0xbd, 0x7f, 0xf4, 0x48, 0xbf, 0xcb, 0x90, 0x3f, 0x3d,
  0x5c, 0xee, 0x86, 0x3d, 0x89, 0x78, 0x55, 0x3f, 0xec, 0xe8, 0x8b, 0xbd,
  0x99, 0xbe, 0x22, 0x3e, 0x0d, 0x7a, 0x81, 0x3e, 0x95, 0x51, 0x5b, 0x3c,
  0x7c, 0x41, 0x1f, 0xbe, 0x1e, 0x0f, 0x1c, 0x3d, 0x54, 0xc3, 0xdb, 0xbd,
  0x98, 0x0d, 0xa2, 0xbd, 0x5c, 0xc1, 0x24, 0xbe, 0xb4, 0x14, 0x3c, 0x3d,
  0xa3, 0xd6, 0x30, 0xbe, 0xe7, 0x64, 0xce, 0x3d, 0x96, 0x93, 0x83, 0xbe,
  0x2a, 0xe6, 0x01, 0x3e, 0xd3, 0x73, 0x8a, 0x3e, 0xda, 0xa0, 0xea, 0x3e,
  0xe1, 0xaa, 0x44, 0xbd, 0x04, 0xc0, 0x7b, 0x3d, 0x5a, 0x35, 0x89, 0x3e,
  0x76, 0x24, 0x2f, 0xbe, 0x0d, 0xe8, 0x5a, 0xbe, 0x4a, 0x63, 0x82, 0xbd,
  0x25, 0xe8, 0x81, 0x3e, 0x4e, 0x0f, 0x07, 0xbd, 0x4f, 0x6b, 0x8e, 0x3d,
  0x04, 0x00, 0xca, 0x3e, 0x58, 0xd6, 0x21, 0xbe, 0x66, 0xab, 0x96, 0x3d,
  0x10, 0x7c, 0x8f, 0x3d, 0xfc, 0xe7, 0xd0, 0xbd, 0x6f, 0x8c, 0xc1, 0x3e,
  0x4f, 0xd6, 0x53, 0x3f, 0x55, 0xd0, 0x7e, 0xbe, 0x4e, 0x96, 0x12, 0x3e,
  0x34, 0x93, 0x51, 0x3e, 0xf3, 0x59, 0x68, 0xbe, 0x42, 0xf5, 0x0f, 0x3c,
  0x70, 0x98, 0xd9, 0xbc, 0x67, 0x37, 0xa3, 0x3d, 0x9e, 0x68, 0xf4, 0x3c,
  0xfb, 0x92, 0x36, 0x3d, 0x71, 0x27, 0xd8, 0x3e, 0x23, 0xf2, 0xba, 0x3d,
  0x00, 0x3b, 0xd4, 0x3c, 0x72, 0xfd, 0xea, 0xbd, 0x56, 0x55, 0x8b, 0xbd,
  0x00, 0x5f, 0x30, 0x3e, 0x14, 0x44, 0xa2, 0x3f, 0x82, 0x4d, 0xa9, 0xbe,
  0xea, 0x80, 0xd7, 0x3d, 0x29, 0xba, 0x28, 0x3e, 0x37, 0xd0, 0x90, 0xbe,
  0xaf, 0xce, 0x07, 0x3d, 0x4c, 0x15, 0x87, 0x3b, 0x64, 0x20, 0x2d, 0x3d,
  0x13, 0x83, 0xf6, 0x3b, 0x53, 0x24, 0xc4, 0xbc, 0x35, 0x13, 0xf5, 0x3e,
  0x5e, 0x51, 0xd2, 0x3d, 0x96, 0x91, 0x7c, 0x3c, 0x86, 0x75, 0xae, 0xbc,
  0x30, 0x5c, 0x84, 0xbc, 0x14, 0x33, 0x80, 0x3e, 0x07, 0xe6, 0x93, 0x3f,
  0x2b, 0xee, 0xdf, 0xbe, 0xe2, 0xd4, 0xb2, 0x3c, 0x20, 0x65, 0x29, 0x3e,
  0x47, 0x8d, 0xc9, 0xbe, 0xb0, 0xfc, 0x91, 0x3d, 0x91, 0x11, 0xc8, 0xbc,
  0x7d, 0x43, 0x4a, 0xbe, 0x1d, 0xde, 0x83, 0x3c, 0x40, 0x0e, 0x00, 0xbd,
  0x87, 0x66, 0xa2, 0x3e, 0x96, 0xe0, 0x27, 0x3d, 0x90, 0x07, 0x18, 0x3d,
  0x98, 0x6b, 0x9f, 0x3e, 0xab, 0x80, 0xc2, 0xbc, 0x47, 0x5c, 0xd3, 0x3d,
  0x2c, 0x8c, 0x9b, 0x3f, 0x7f, 0xea, 0x12, 0xbf, 0xd5, 0x27, 0x19, 0x3e,
  0x18, 0xcc, 0x63, 0x3e, 0x77, 0x6f, 0xc5, 0xbd, 0x4d, 0x56, 0x07, 0x3e,
  0xb7, 0xfa, 0x19, 0xbb, 0x19, 0x2e, 0xbc, 0xbc, 0x79, 0x50, 0xd0, 0xbc,
  0x82, 0x01, 0xc3, 0x3c, 0xde, 0x27, 0x96, 0x3d, 0x04, 0x94, 0xd2, 0xbd,
  0x42, 0xdf, 0xf0, 0xbd, 0xb7, 0xdf, 0x8b, 0x3d, 0x7a, 0x57, 0xcb, 0x39,
  0x73, 0xd1, 0xa5, 0x3d, 0x49, 0x81, 0xc1, 0x3e, 0x19, 0x14, 0x8b, 0x3c,
  0x60, 0x0e, 0x54, 0xbe, 0xef, 0x0b, 0xa5, 0xbd, 0xc5, 0xd3, 0x8a, 0xbd,
  0x22, 0xa9, 0x29, 0xbf, 0x90, 0x97, 0xfe, 0xbe, 0xbb, 0xaf, 0x9a, 0xbe,
  0x87, 0xc2, 0x8c, 0xbe, 0xbe, 0xc5, 0x80, 0xbe, 0xe6, 0x7f, 0x9c, 0xbe,
  0x42, 0xa8, 0xd9, 0xbe, 0x08, 0x32, 0x10, 0xbe, 0xb7, 0xa4, 0x0d, 0x3e,
  0x75, 0x4d, 0x48, 0xbf, 0x3a, 0xe9, 0x56, 0xbe, 0x05, 0x36, 0xb5, 0xbd,
  0x54, 0x6d, 0x21, 0x3d, 0xa9, 0xf7, 0x3d, 0xbd, 0xc0, 0x89, 0x95, 0xbe,
  0x00, 0xe7, 0x38, 0x3d, 0x59, 0x17, 0x24, 0x3c, 0x75, 0x6d, 0x0a, 0xbe,
  0x33, 0xa2, 0x29, 0xbd, 0xfb, 0x38, 0x24, 0x3d, 0x43, 0xe9, 0xb3, 0x3c,
  0x4a, 0xa1, 0x28, 0xbe, 0xc6, 0x1f, 0xb3, 0xbe, 0xd3, 0xcc, 0x49, 0x3d,
  0x8f, 0xf0, 0x96, 0x3e, 0x42, 0x5b, 0xf8, 0xbd, 0x76, 0xc7, 0x5e, 0xbe,
  0x16, 0x16, 0x69, 0xbd, 0xa1, 0xfb, 0x31, 0xbe, 0xbf, 0xc3, 0x39, 0x3d,
  0x29, 0xa5, 0x1b, 0x3d, 0x42, 0x07, 0x1b, 0xbe, 0xe5, 0x94, 0x67, 0x3d,
  0x35, 0x9d, 0xba, 0xbd, 0xb2, 0x28, 0xa5, 0xbb, 0x5d, 0xad, 0x1e, 0x3b,
  0x2d, 0xa9, 0x2b, 0xbd, 0x5e, 0x1c, 0xb4, 0xbd, 0xd7, 0x1b, 0x21, 0xbe,
  0x28, 0xe2, 0xc8, 0x3d, 0xf2, 0x95, 0x4a, 0x3e, 0xd9, 0x88, 0xa9, 0x3d,
  0xc2, 0xaa, 0xa8, 0xbc, 0x9d, 0xbe, 0x81, 0x3d, 0xfb, 0x3e, 0x6f, 0xbe,
  0xbd, 0x5e, 0x56, 0xbd, 0x50, 0xed, 0x60, 0xbd, 0x20, 0x6f, 0x3f, 0xbc,
  0x8f, 0x3d, 0xea, 0xbd, 0xf4, 0x97, 0x9a, 0xbc, 0xb3, 0x32, 0xae, 0xbd,
  0x01, 0xd9, 0x3f, 0xbc, 0xf0, 0x8c, 0x29, 0xbe, 0xbc, 0xf6, 0xf9, 0xbc,
  0x13, 0xed, 0xfd, 0xbe, 0xf4, 0xc4, 0x04, 0x3d, 0x17, 0xd9, 0x79, 0x3e,
  0x44, 0x4e, 0xe3, 0x3d, 0x52, 0x7b, 0x8f, 0x3c, 0xf4, 0x24, 0x56, 0xbe,
  0x0f, 0x74, 0xde, 0xbe, 0xb3, 0xf2, 0x4a, 0x3d, 0xd0, 0x9d, 0x48, 0xbe,
  0xcf, 0x3e, 0xc5, 0x3d, 0xcf, 0xf6, 0x5c, 0xbd, 0xf2, 0x01, 0xb3, 0xbd,
  0xc9, 0xc0, 0x62, 0xbe, 0xb9, 0x46, 0xd5, 0xbd, 0xd5, 0xff, 0x93, 0xbd,
  0xbf, 0x58, 0x94, 0xbe, 0x1d, 0xfa, 0xe3, 0xbe, 0x08, 0x51, 0x30, 0x3d,
  0xb1, 0x2a, 0x50, 0x3e, 0x7e, 0x1b, 0x46, 0x3d, 0x37, 0x6d, 0xb1, 0x3d,
  0x17, 0xc2, 0xb9, 0x3d, 0x06, 0xf4, 0x90, 0xbe, 0x1f, 0xaf, 0x58, 0xbd,
  0x11, 0xa1, 0x61, 0xbe, 0x5b, 0x59, 0x11, 0xbc, 0x79, 0xab, 0x6f, 0xbc,
  0x00, 0x11, 0x4c, 0xbd, 0x68, 0xd3, 0x73, 0xbe, 0x9c, 0x93, 0xd0, 0x3b,
  0xe7, 0x75, 0x9b, 0xbe, 0x07, 0x7d, 0xe0, 0xbe, 0x71, 0x7a, 0x88, 0xbe,
  0x0f, 0x7e, 0x6a, 0x3d, 0x2f, 0x0d, 0x10, 0x3e, 0xe0, 0xf3, 0x10, 0xbd,
  0x6b, 0x03, 0x59, 0xbe, 0xbb, 0x96, 0xad, 0xbc, 0x2e, 0xb8, 0x3e, 0xbe,
  0x62, 0x3f, 0xff, 0xbd, 0x8e, 0x12, 0xc1, 0xbe, 0x7b, 0x79, 0x8c, 0xbd,
  0x39, 0x75, 0x89, 0x3b, 0x92, 0xb0, 0x4d, 0x3e, 0x08, 0xb5, 0x8c, 0xbe,
  0xd3, 0x49, 0x3b, 0x3e, 0x13, 0xd5, 0x88, 0xbd, 0x92, 0x20, 0xb4, 0x3d,
  0x84, 0xe2, 0x72, 0xbe, 0x63, 0x32, 0x0e, 0x3e, 0xee, 0xe3, 0x1d, 0x3e,
  0x23, 0xba, 0x1b, 0x3e, 0xba, 0x3c, 0xa8, 0xbd, 0x23, 0x49, 0xba, 0xbe,
  0x29, 0x25, 0x03, 0xbf, 0x7d, 0xc5, 0x41, 0x3d, 0x30, 0xcf, 0xb3, 0xbe,
  0x3a, 0xf3, 0x7f, 0x3e, 0x68, 0xaf, 0xd8, 0x3d, 0x1f, 0x03, 0x23, 0x3d,
  0xb5, 0xb6, 0xd8, 0x3e, 0x7a, 0x4e, 0x02, 0x3d, 0x2a, 0x2d, 0x15, 0x3e,
  0xba, 0xe0, 0x4d, 0xbe, 0x69, 0xf9, 0x38, 0x3e, 0x42, 0x83, 0x04, 0x3e,
  0x1a, 0x68, 0x07, 0xbe, 0x38, 0x71, 0xe8, 0xbd, 0xff, 0x83, 0x31, 0x3d,
  0x59, 0x83, 0x01, 0xbf, 0xfb, 0x17, 0x0e, 0x3e, 0xdc, 0x5c, 0x1f, 0x3d,
  0xea, 0xd3, 0xfa, 0xbd, 0x1f, 0xbe, 0x76, 0x3c, 0x57, 0xc4, 0x97, 0x3d,
  0x90, 0x09, 0x90, 0xbb, 0xbd, 0xfc, 0xf3, 0x3e, 0xcc, 0x47, 0xce, 0x3d,
  0xf8, 0x62, 0x88, 0x3d, 0xb3, 0x1a, 0x81, 0xbd, 0x43, 0xfc, 0x39, 0x3d,
  0x22, 0x5c, 0xb6, 0xbd, 0xa3, 0xa4, 0xe7, 0x3d, 0x7a, 0x7c, 0xa3, 0xbd,
  0x1c, 0xd6, 0x8d, 0xbe, 0x89, 0x27, 0x1d, 0x3f, 0xae, 0x7c, 0xa3, 0x3d,
  0x9c, 0x83, 0x2a, 0xbe, 0xf5, 0x14, 0xab, 0xbe, 0xe3, 0x00, 0x69, 0x3e,
  0xda, 0xb2, 0xbb, 0x3d, 0xed, 0xce, 0x9b, 0x3c, 0x85, 0xcb, 0x5c, 0xbe,
  0x43, 0x13, 0x93, 0xbd, 0x67, 0xa4, 0x3d, 0xbd, 0xa5, 0x1f, 0x38, 0xbe,
  0x66, 0x96, 0xcf, 0x3d, 0x89, 0xf8, 0xae, 0xbd, 0xe1, 0xfe, 0x9e, 0x3d,
  0x85, 0x5e, 0x90, 0x3d, 0x4f, 0xee, 0x11, 0xbf, 0x66, 0x4f, 0x78, 0x3d,
  0xa6, 0xf7, 0x0b, 0xbc, 0xc9, 0xcd, 0x0a, 0xbe, 0xbd, 0xda, 0x84, 0xbe,
  0xfa, 0x6d, 0x83, 0x3e, 0x55, 0x7f, 0x29, 0x3b, 0x17, 0x54, 0x22, 0x3c,
  0x6d, 0x2e, 0x61, 0xbe, 0xaf, 0x15, 0x56, 0xbd, 0xc3, 0xe1, 0x32, 0xbc,
  0xd8, 0x06, 0x41, 0xbe, 0x95, 0x5c, 0x90, 0x3d, 0xd2, 0x0a, 0x02, 0xbe,
  0xa9, 0x28, 0xb8, 0xb9, 0xa8, 0x39, 0x92, 0xbc, 0xd9, 0xfb, 0x9e, 0xbe,
  0x08, 0x1b, 0x01, 0xbf, 0x93, 0x0d, 0xf8, 0x3d, 0xbb, 0x14, 0x97, 0xbe,
  0x03, 0xf5, 0x75, 0xbd, 0x8c, 0x1a, 0x93, 0xbd, 0xd6, 0xc4, 0x6e, 0xbd,
  0xfd, 0xf1, 0x8c, 0x3b, 0xa8, 0x52, 0x2f, 0xbc, 0x3c, 0xca, 0xab, 0x3c,
  0x43, 0x1c, 0x54, 0x3d, 0xc2, 0x96, 0xb4, 0xbd, 0xbe, 0x6b, 0x25, 0x3c,
  0x0e, 0x27, 0xc3, 0xbd, 0x0c, 0x1c, 0x5b, 0xbc, 0xf7, 0xcf, 0x15, 0xbb,
  0x56, 0xfe, 0x91, 0xbe, 0x21, 0xb3, 0x2c, 0xbf, 0x60, 0x2b, 0x28, 0x3d,
  0xf6, 0x0d, 0xe9, 0xbd, 0x5b, 0xb3, 0x2a, 0xbe, 0x8e, 0xcd, 0x5b, 0x3e,
  0xec, 0x2c, 0x02, 0xbc, 0x53, 0x3b, 0xb0, 0x3c, 0xf7, 0xba, 0xc2, 0x3c,
  0x52, 0x44, 0x93, 0xbd, 0x81, 0x63, 0xba, 0xbd, 0x8c, 0x63, 0xd2, 0xbe,
  0x36, 0x3f, 0x04, 0x3e, 0xf7, 0x69, 0xe0, 0xbd, 0x86, 0x5d, 0x7d, 0xbe,
  0xdf, 0x1e, 0x89, 0xbb, 0xbb, 0xfd, 0x76, 0xbe, 0xa3, 0xf7, 0x36, 0xbe,
  0x7e, 0x54, 0x94, 0xbd, 0xb0, 0x51, 0xac, 0x3d, 0x61, 0xb0, 0x70, 0xbc,
  0xbd, 0x11, 0x74, 0x3d, 0x81, 0xae, 0xbe, 0xbd, 0x2e, 0x63, 0x91, 0x3b,
  0x1e, 0x4a, 0x70, 0x3d, 0xec, 0xdb, 0x98, 0xbd, 0xb7, 0x34, 0x82, 0x3d,
  0x03, 0x2b, 0x0b, 0xbe, 0x11, 0xc2, 0x24, 0x3e, 0xf8, 0xed, 0x9e, 0xbd,
  0xc1, 0xae, 0xfe, 0x3d, 0xe8, 0xf1, 0x9b, 0x3b, 0x38, 0x18, 0x22, 0x3e,
  0xb0, 0xa2, 0xaa, 0x3b, 0x60, 0x39, 0x2e, 0x3d, 0xdd, 0x45, 0xbf, 0x3c,
  0x90, 0x2a, 0x5b, 0x3e, 0xd3, 0x7d, 0xb3, 0xbe, 0x45, 0xf3, 0x0b, 0x3d,
  0xf0, 0x62, 0x6e, 0x3d, 0x13, 0xb5, 0x94, 0xbe, 0x3c, 0x56, 0x86, 0x3e,
  0x26, 0x53, 0x8c, 0xbd, 0xcc, 0x7f, 0x9d, 0x3d, 0xcd, 0xf2, 0x25, 0x3d,
  0xc9, 0x04, 0xba, 0x3c, 0xc1, 0xc8, 0x84, 0xbd, 0x19, 0x41, 0xda, 0x3d,
  0x0d, 0x22, 0x75, 0xbb, 0xa2, 0xe7, 0x89, 0x3e, 0x6a, 0x72, 0x85, 0xbe,
  0xca, 0xcd, 0x8b, 0xbd, 0x58, 0x11, 0xb7, 0x3d, 0x55, 0x92, 0x71, 0x3c,
  0x02, 0x8c, 0x24, 0xbd, 0xc5, 0x30, 0xdf, 0x3c, 0xac, 0x72, 0xe6, 0xbe,
  0x75, 0xae, 0x2d, 0xbe, 0x3f, 0xa3, 0x0f, 0x3d, 0xfc, 0xec, 0x05, 0x3d,
  0x48, 0x0a, 0xbf, 0x3d, 0x17, 0x7a, 0xe6, 0xbb, 0xfc, 0x8d, 0x3a, 0x3e,
  0x7b, 0xb8, 0x6a, 0x3b, 0xa6, 0x0f, 0xac, 0x3e, 0xd9, 0xc7, 0x4a, 0xbd,
  0xa9, 0x2b, 0x67, 0xbc, 0x2c, 0x9d, 0x02, 0x3e, 0x93, 0x88, 0x7f, 0x3e,
  0x85, 0x5c, 0x04, 0x3e, 0x99, 0x96, 0xae, 0xbc, 0x6e, 0xc9, 0x13, 0x3d,
  0x9b, 0x33, 0xce, 0x3e, 0x02, 0xd1, 0x1c, 0xbe, 0x6c, 0x95, 0xd0, 0x3d,
  0x2e, 0x7e, 0xa4, 0x3e, 0x52, 0xd4, 0x75, 0x3d, 0x41, 0x9a, 0x22, 0xbd,
  0xe9, 0x5e, 0x78, 0x3d, 0xce, 0xd9, 0x01, 0xbd, 0xbf, 0x2d, 0xf9, 0x3e,
  0x56, 0x1f, 0x84, 0x3e, 0xf0, 0xc3, 0x28, 0x3e, 0x72, 0x76, 0xc9, 0x3e,
  0xf3, 0xd5, 0x6d, 0x3e, 0x7e, 0xc8, 0x9c, 0xbd, 0xa8, 0xf0, 0x84, 0xbc,
  0xb6, 0xba, 0x33, 0x3b, 0xfd, 0xe5, 0xc0, 0x3e, 0xdd, 0x45, 0xca, 0xbd,
  0x5c, 0x81, 0xca, 0x3d, 0xa2, 0xd6, 0xeb, 0x3e, 0x1e, 0x4b, 0xd8, 0x3d,
  0x95, 0x91, 0xfb, 0xbc, 0x25, 0x7d, 0x8a, 0x3e, 0x22, 0x9f, 0x85, 0xbd,
  0x01, 0x6a, 0xab, 0x3e, 0x06, 0xe8, 0x10, 0x3f, 0x93, 0x2c, 0x62, 0x3d,
  0x25, 0xe7, 0x57, 0x3d, 0x4f, 0x10, 0xe4, 0x3e, 0xe0, 0x57, 0xc1, 0xbe,
  0x21, 0x5b, 0x3c, 0xbc, 0xf7, 0x72, 0xfe, 0x3a, 0xb3, 0x24, 0x88, 0x3e,
  0x06, 0x26, 0xbe, 0xbd, 0xa7, 0xf6, 0x92, 0xba, 0x1b, 0xce, 0x26, 0x3f,
  0x61, 0xb0, 0xa5, 0x3d, 0x20, 0x97, 0xcb, 0xbb, 0x62, 0x94, 0x5d, 0x3e,
  0xa2, 0x58, 0x0a, 0xbc, 0xd2, 0xf6, 0xf1, 0x3d, 0x30, 0x83, 0x1e, 0x3f,
  0x67, 0x04, 0x53, 0xbe, 0x4e, 0xf9, 0x6b, 0x3d, 0xf1, 0x26, 0x17, 0x3f,
  0x8c, 0x96, 0xe0, 0xbe, 0xd9, 0x5d, 0x07, 0x3d, 0xe8, 0xc2, 0x61, 0xbc,
  0x35, 0xa9, 0x83, 0xbe, 0x50, 0x02, 0xb7, 0xbd, 0x25, 0xd8, 0x82, 0x3c,
  0x8f, 0xd0, 0x9d, 0x3e, 0x8c, 0x41, 0x2c, 0x3e, 0xfe, 0x4e, 0xa4, 0xbd,
  0xf2, 0x0a, 0x81, 0x3d, 0x15, 0x13, 0x1e, 0xbd, 0xd5, 0x7e, 0xcc, 0x3d,
  0xeb, 0x3f, 0x43, 0x3f, 0x4a, 0xf7, 0x88, 0xbe, 0x4a, 0x6d, 0x99, 0xbd,
  0xb2, 0xa4, 0x8d, 0x3d, 0xbb, 0x43, 0xec, 0xbd, 0xe4, 0x1e, 0xd1, 0x3d,
  0x31, 0xe5, 0x9f, 0x3c, 0x77, 0x0f, 0x60, 0xb9, 0xdd, 0xfd, 0xc9, 0xbd,
  0x58, 0xa4, 0x77, 0x3d, 0x7b, 0x6c, 0xaa, 0xbd, 0xed, 0x2a, 0x90, 0x3e,
  0x6f, 0x77, 0x7b, 0xbd, 0xcb, 0x5d, 0x9a, 0x3d, 0x9a, 0x67, 0x8b, 0xbd,
  0x59, 0x46, 0x1e, 0x3d, 0xa6, 0x7a, 0x2c, 0xbe, 0xcb, 0xd5, 0xd9, 0xbd,
  0xe9, 0x40, 0x53, 0xbe, 0x16, 0xab, 0xc5, 0x3c, 0xd0, 0xaf, 0x90, 0xbd,
  0x1e, 0x6a, 0x2d, 0x3e, 0x9a, 0x70, 0xf1, 0xbd, 0xe2, 0xa8, 0x8f, 0xbe,
  0x55, 0x01, 0x5c, 0xbd, 0xd5, 0xf6, 0x03, 0xbd, 0x68, 0x8b, 0x98, 0xbe,
  0xa7, 0xff, 0x9e, 0x3c, 0x83, 0xe1, 0xa2, 0xbc, 0x81, 0xdd, 0x5d, 0xbc,
  0x31, 0x63, 0x53, 0xbe, 0x00, 0xbc, 0x76, 0xbe, 0x2f, 0x4b, 0x92, 0x3f,
  0xb8, 0x79, 0x88, 0xbd, 0x71, 0xd8, 0xa9, 0xbd, 0x38, 0xab, 0x46, 0xbe,
  0x8a, 0x79, 0xf8, 0x3d, 0x98, 0xa5, 0x27, 0xbe, 0x01, 0xa4, 0x0c, 0xbe,
  0xf4, 0x3f, 0x13, 0xbe, 0x16, 0xc5, 0xe9, 0x3c, 0xa5, 0x75, 0xa2, 0xbe,
  0x33, 0x0e, 0xae, 0x3c, 0xcc, 0x5e, 0xc8, 0x3d, 0x40, 0x95, 0x5e, 0xbe,
  0x79, 0x83, 0x65, 0xbd, 0x4a, 0x11, 0xc9, 0xbe, 0x30, 0xb2, 0x3b, 0xbc,
  0x65, 0xc1, 0x8e, 0x3f, 0x7a, 0x53, 0x93, 0xbe, 0x5f, 0xf1, 0x85, 0xbe,
  0x77, 0xab, 0x01, 0x3e, 0xff, 0x1f, 0x96, 0xbc, 0xf5, 0x78, 0x8d, 0x3c,
  0x91, 0xef, 0x1c, 0xbd, 0x35, 0xa8, 0xdb, 0xbd, 0x73, 0x78, 0x93, 0xbe,
  0x78, 0xa6, 0x52, 0xbe, 0x9d, 0x28, 0x2c, 0xbe, 0xb2, 0x05, 0x33, 0xbc,
  0x58, 0x4f, 0x7b, 0xbc, 0x70, 0x6f, 0xe7, 0x3c, 0x21, 0x44, 0x0a, 0xbd,
  0x16, 0x44, 0x0a, 0xbe, 0xd4, 0xd7, 0xe8, 0x3f, 0xe4, 0x1f, 0x29, 0x3d,
  0x2c, 0xc8, 0xa0, 0x3d, 0x54, 0xc5, 0xa0, 0xbd, 0xe8, 0xd9, 0x0a, 0xbd,
  0x71, 0xe0, 0x4a, 0xbd, 0xee, 0x91, 0xb1, 0xbe, 0xce, 0x68, 0xce, 0x3a,
  0x86, 0xeb, 0x94, 0xbe, 0x0f, 0xd9, 0xd8, 0xbd, 0x4d, 0x66, 0x21, 0xbe,
  0x77, 0x18, 0x13, 0x3e, 0x58, 0x29, 0xbe, 0x3c, 0x4a, 0x57, 0xf4, 0x3d,
  0x42, 0x5c, 0xad, 0xbe, 0x16, 0x08, 0x9b, 0xbd, 0xec, 0x2d, 0x56, 0x3f,
  0x45, 0x59, 0x88, 0xbd, 0xa1, 0x3e, 0x95, 0xbe, 0xb5, 0xdf, 0x80, 0xbe,
  0x4a, 0x7c, 0x9b, 0x3d, 0x79, 0xa6, 0x61, 0xbd, 0x0c, 0x45, 0xa7, 0xbd,
  0x84, 0xc8, 0xc6, 0xbd, 0x3a, 0x82, 0xa0, 0xbe, 0xa6, 0x7b, 0xe7, 0x3d,
  0x62, 0x1c, 0xe2, 0xbd, 0x85, 0x35, 0x32, 0xbe, 0xc9, 0x87, 0x0c, 0xbe,
  0x83, 0xe0, 0x10, 0x3b, 0x16, 0x30, 0x95, 0xbe, 0x6f, 0x54, 0x9f, 0xbd,
  0xfc, 0x43, 0xac, 0x3f, 0x6c, 0xbd, 0x1d, 0x3d, 0x61, 0xae, 0xbc, 0x3c,
  0xcd, 0x98, 0x31, 0xbe, 0x35, 0x60, 0x38, 0xbe, 0x9a, 0x0b, 0xd7, 0xbd,
  0xc6, 0xcf, 0x64, 0xbe, 0xdd, 0x68, 0x02, 0xbe, 0x8b, 0x5a, 0x22, 0xbe,
  0xb6, 0x20, 0xc2, 0x3d, 0xef, 0x42, 0x09, 0xbd, 0x08, 0x4c, 0x1a, 0x3e,
  0x88, 0xfb, 0x8e, 0xbe, 0x37, 0xed, 0x40, 0x3d, 0x29, 0x60, 0x23, 0xbe,
  0x1d, 0x3a, 0x78, 0xbe, 0x18, 0xbe, 0x9f, 0x3f, 0x5b, 0xb8, 0x69, 0xbd,
  0x5c, 0x64, 0x2b, 0xbe, 0x33, 0x37, 0x76, 0xbe, 0x23, 0x5d, 0x17, 0xbe,
  0x68, 0x94, 0xfa, 0x3c, 0xfb, 0x83, 0x37, 0x3d, 0x22, 0x03, 0x99, 0xbe,
  0x06, 0xc8, 0xb9, 0xbe, 0xfc, 0x42, 0x57, 0xbe, 0xc0, 0xc4, 0x4a, 0xbe,
  0x96, 0x74, 0x26, 0xbe, 0xa2, 0x87, 0x50, 0xbe, 0x81, 0xa6, 0xe0, 0x3d,
  0xf1, 0x30, 0x3f, 0xbe, 0x6e, 0x00, 0xaa, 0xbd, 0x7d, 0xcb, 0x36, 0x3f,
  0xd5, 0x19, 0x85, 0xbe, 0x25, 0xee, 0xc9, 0x3d, 0xf6, 0x03, 0x14, 0xbe,
  0x7f, 0x1d, 0x4a, 0x3e, 0x28, 0x5f, 0x2e, 0xbe, 0x6c, 0x08, 0xc6, 0x3b,
  0x64, 0x67, 0xb5, 0x3e, 0x0d, 0x85, 0x83, 0xbe, 0x96, 0x67, 0xa8, 0x3e,
  0xc5, 0x9c, 0xfa, 0xbd, 0xff, 0x0b, 0xa2, 0xbe, 0xba, 0x2d, 0x02, 0xbf,
  0x07, 0x83, 0xc0, 0xbe, 0xc8, 0x1d, 0x61, 0xbc, 0x02, 0x88, 0xb9, 0xbc,
  0x23, 0x8a, 0x7a, 0x3e, 0x04, 0xb5, 0x58, 0x3e, 0x94, 0x23, 0x84, 0x3e,
  0x71, 0x4c, 0x71, 0xbd, 0x65, 0x58, 0xb7, 0x3d, 0xa9, 0x7a, 0x05, 0xbe,
  0x3d, 0xb5, 0x6a, 0xbc, 0xb8, 0xb2, 0xed, 0x3e, 0xb0, 0xba, 0x37, 0x3e,
  0x6c, 0x30, 0x31, 0xbe, 0xa9, 0x24, 0xcf, 0x3c, 0xf2, 0x30, 0x46, 0x3e,
  0x0c, 0x19, 0x86, 0xbd, 0x5b, 0xeb, 0x27, 0xbe, 0x39, 0x0a, 0xe3, 0x3c,
  0xfd, 0x8a, 0x3b, 0xbc, 0x77, 0xb8, 0x80, 0x3f, 0xb3, 0xde, 0x3b, 0xbe,
  0xa9, 0x5f, 0xa2, 0x3d, 0x7b, 0x77, 0x76, 0xbe, 0xfa, 0xbd, 0x4c, 0xbe,
  0x40, 0xd3, 0x79, 0x3c, 0xdb, 0x93, 0x3b, 0x3b, 0xe7, 0xf5, 0x3b, 0xbe,
  0xb6, 0xaf, 0x03, 0x3e, 0x59, 0x55, 0x9d, 0xbe, 0x64, 0x71, 0xa8, 0xbc,
  0x37, 0x78, 0xc6, 0x3e, 0x4a, 0x0a, 0xa4, 0xbd, 0xa2, 0xa1, 0xc8, 0xbd,
  0xdc, 0x7a, 0x49, 0x3d, 0xaf, 0x47, 0x00, 0xbf, 0x34, 0xba, 0x54, 0x3f,
  0x27, 0xba, 0x4b, 0xbe, 0x59, 0x07, 0x04, 0xbf, 0x15, 0x23, 0xfb, 0xbe,
  0xb6, 0xfa, 0x62, 0xbe, 0x12, 0xcc, 0x5b, 0x3d, 0xc3, 0x9a, 0x83, 0xbc,
  0xdd, 0x24, 0xb6, 0xbe, 0x7b, 0x24, 0xa2, 0x3d, 0x42, 0xd3, 0xb8, 0xbe,
  0xb9, 0x90, 0x47, 0xbe, 0x37, 0x47, 0x58, 0x3e, 0xe4, 0xe5, 0xba, 0xbd,
  0x27, 0x6b, 0xba, 0x3c, 0x36, 0xa7, 0x56, 0xbc, 0xf6, 0xe4, 0xde, 0xbe,
  0x24, 0x0e, 0x39, 0x3f, 0x6d, 0x69, 0x9f, 0xbe, 0x72, 0x5d, 0x57, 0xbe,
  0xa9, 0xe3, 0xe9, 0xbc, 0x73, 0xdc, 0x98, 0xbe, 0xbb, 0x3e, 0xdb, 0x3c,
  0x21, 0x9c, 0xe7, 0xba, 0xc7, 0x83, 0xad, 0xbe, 0x2f, 0x6f, 0x24, 0x3b,
  0xa7, 0x93, 0xb9, 0xbd, 0x66, 0xa7, 0x77, 0xbc, 0x5a, 0xd8, 0x4d, 0xbb,
  0x96, 0x4e, 0x37, 0xbe, 0x99, 0x0d, 0xc5, 0xbd, 0x14, 0x6f, 0x02, 0x3d,
  0x55, 0xfd, 0x89, 0xbe, 0x71, 0xbe, 0xad, 0x3e, 0xdc, 0x72, 0x85, 0xbd,
  0xc9, 0x1c, 0xd7, 0xbd, 0x96, 0x60, 0xdc, 0xbd, 0xf8, 0xd1, 0xce, 0xbe,
  0x07, 0x65, 0xc4, 0xbd, 0x6e, 0x54, 0xbd, 0xbc, 0x41, 0xdd, 0x05, 0xbe,
  0x4b, 0x79, 0x8f, 0x3c, 0x14, 0x3b, 0x20, 0xbe, 0xba, 0x85, 0x8c, 0xbe,
  0x61, 0xff, 0x23, 0xbe, 0xf2, 0x25, 0x7f, 0xbe, 0xfe, 0x38, 0x4d, 0xbe,
  0xe6, 0xf0, 0xa5, 0xbd, 0xd5, 0xeb, 0xa3, 0x3c, 0xf4, 0x20, 0xd0, 0x3e,
  0x05, 0x9a, 0x3c, 0xbe, 0xbb, 0x83, 0x0e, 0xbe, 0xc8, 0x8a, 0xdb, 0xbe,
  0x31, 0x56, 0xb3, 0xbc, 0x09, 0x38, 0x69, 0xbe, 0x93, 0xb9, 0x15, 0xbc,
  0x5f, 0x41, 0xa6, 0x3b, 0x49, 0x7b, 0x3a, 0xbe, 0x94, 0x3f, 0x4e, 0xbe,
  0x3c, 0xe3, 0xe8, 0xbd, 0xa1, 0xe9, 0x64, 0xbe, 0x3a, 0x2c, 0x54, 0xbe,
  0xaa, 0x9d, 0x8b, 0xbe, 0x3a, 0x88, 0x94, 0x3d, 0xf5, 0x50, 0x4e, 0x3e,
  0x6e, 0x62, 0x77, 0x3d, 0x36, 0x6c, 0x81, 0xbd, 0x7f, 0xf4, 0x48, 0xbe,
  0x42, 0xd4, 0xd6, 0x3e, 0x7c, 0x6c, 0x6a, 0xbe, 0x56, 0xfb, 0x50, 0xbe,
  0x56, 0x44, 0x56, 0xbe, 0x6c, 0x7d, 0x30, 0xbd, 0xfa, 0x8d, 0x13, 0xbe,
  0x30, 0xa6, 0xa0, 0xbe, 0xc2, 0x1c, 0xa8, 0x3e, 0x9a, 0x46, 0x80, 0xbd,
  0xf7, 0x83, 0x19, 0xbe, 0xb2, 0x19, 0x48, 0x3e, 0x48, 0x7c, 0x47, 0xbe,
  0xee, 0xbe, 0xe7, 0x3d, 0x31, 0x0f, 0xa0, 0x3f, 0xbd, 0x64, 0xa6, 0xbe,
  0xe4, 0x0e, 0xa4, 0x3e, 0x0e, 0x9b, 0x2c, 0x3e, 0x3c, 0x2a, 0x35, 0xbe,
  0x44, 0xed, 0x07, 0x3d, 0xf6, 0x90, 0x20, 0xbd, 0xf6, 0xdb, 0x80, 0xbe,
  0x4b, 0x03, 0xf0, 0xbd, 0xd8, 0x36, 0x26, 0xbc, 0xd9, 0xa8, 0x5f, 0xbd,
  0x29, 0xc2, 0x33, 0x3e, 0xd5, 0x23, 0xba, 0xbd, 0x28, 0x40, 0x24, 0xbd,
  0x57, 0xc3, 0x5f, 0xbe, 0xe8, 0x04, 0xbe, 0x3e, 0x7c, 0xc7, 0x46, 0x3f,
  0x63, 0x00, 0xce, 0xbe, 0x6a, 0xac, 0xd8, 0x3e, 0x3f, 0xe9, 0x3a, 0x3e,
  0xc2, 0x30, 0x6a, 0x3d, 0xda, 0xf2, 0x9d, 0x3c, 0x25, 0xac, 0x73, 0xbd,
  0xb3, 0x65, 0x23, 0x3e, 0x51, 0x29, 0xa3, 0xbc, 0x92, 0x2d, 0xf8, 0x3d,
  0x57, 0x6a, 0xba, 0x3e, 0x5f, 0x20, 0x85, 0x3d, 0x08, 0xfe, 0x2f, 0x3c,
  0xdb, 0x68, 0x48, 0xbd, 0x0d, 0x45, 0xf8, 0xbd, 0xd1, 0x12, 0xdb, 0x3e,
  0x25, 0xc9, 0xc1, 0x3f, 0xc1, 0x56, 0x61, 0xbe, 0x4f, 0x37, 0xb3, 0x3e,
  0x63, 0x3b, 0xc5, 0x3c, 0xf4, 0x59, 0x11, 0x3e, 0xd0, 0x53, 0x2c, 0x3d,
  0xe9, 0x03, 0x7f, 0xbd, 0xf8, 0xec, 0x1e, 0x3e, 0xdd, 0x5e, 0xa9, 0x3d,
  0x7b, 0x00, 0xfc, 0xbd, 0xef, 0x57, 0xc5, 0x3e, 0x2f, 0x4b, 0x68, 0xbd,
  0xa3, 0x84, 0x96, 0xb7, 0x15, 0xec, 0xd1, 0x3d, 0x97, 0x93, 0x72, 0x3e,
  0xca, 0xba, 0xb4, 0x3e, 0x8d, 0x1f, 0xd2, 0x3f, 0x32, 0xad, 0xb5, 0xbe,
  0xda, 0x96, 0x58, 0x3d, 0x31, 0x83, 0xcd, 0x3e, 0x78, 0xac, 0x85, 0xbe,
  0x1f, 0xc5, 0x74, 0x3d, 0x77, 0xab, 0xa6, 0xbd, 0x05, 0x3d, 0x00, 0x3e,
  0xc7, 0x85, 0x44, 0xbd, 0xbe, 0xe1, 0x76, 0xbe, 0xea, 0x15, 0xa8, 0x3e,
  0xb7, 0xf7, 0xdf, 0xbd, 0x85, 0xfd, 0x93, 0x3b, 0x2c, 0x1e, 0x32, 0x3e,
  0x96, 0x4a, 0x46, 0x3e, 0x61, 0x80, 0x67, 0x3e, 0x4e, 0x60, 0xf5, 0x3f,
  0x98, 0x1b, 0x53, 0xbe, 0x75, 0x4f, 0x89, 0xbd, 0x4c, 0x6a, 0x50, 0x3e,
  0x6b, 0x09, 0x9e, 0xbe, 0xb0, 0x82, 0x42, 0xbe, 0x61, 0x16, 0x8e, 0xbd,
  0x27, 0x28, 0x8c, 0xbe, 0x18, 0xa0, 0xb0, 0x3d, 0xb2, 0x31, 0x93, 0x3d,
  0xef, 0xcf, 0xbe, 0x3e, 0x09, 0x30, 0x66, 0xbd, 0x29, 0x15, 0xfe, 0x3d,
  0x1a, 0xc3, 0xe1, 0x3e, 0x17, 0x19, 0x3e, 0xbe, 0xe2, 0x78, 0x39, 0x3d,
  0x61, 0x59, 0xf9, 0x3f, 0xf6, 0xe3, 0xfe, 0xbe, 0xf6, 0x4a, 0x8e, 0x3d,
  0xdb, 0x94, 0x04, 0x3e, 0x5c, 0x38, 0x53, 0xbe, 0x63, 0x9f, 0x4a, 0xbd,
  0xe5, 0x38, 0x5e, 0x3d, 0x3c, 0x3e, 0xc5, 0xbd, 0x27, 0x38, 0x6e, 0x3e,
  0x3a, 0xf4, 0x15, 0xbe, 0x4c, 0x16, 0x87, 0x3e, 0x76, 0xb1, 0xb3, 0xbd,
  0x60, 0xc6, 0x83, 0x3d, 0x69, 0x88, 0xb2, 0x3d, 0xdc, 0x10, 0xa0, 0x3d,
  0xb7, 0x2d, 0x27, 0x3e, 0x02, 0x7c, 0xd6, 0x3e, 0x98, 0x86, 0x84, 0xbe,
  0x46, 0xfe, 0xff, 0xff, 0x10, 0x00, 0x00, 0x00, 0x05, 0x00, 0x00, 0x00,
  0x14, 0x00, 0x00, 0x00, 0x2c, 0x00, 0x00, 0x00, 0x02, 0x00, 0x00, 0x00,
  0x10, 0x00, 0x00, 0x00, 0x70, 0x00, 0x00, 0x00, 0x17, 0x00, 0x00, 0x00,
  0x73, 0x65, 0x71, 0x75, 0x65, 0x6e, 0x74, 0x69, 0x61, 0x6c, 0x2f, 0x64,
  0x65, 0x6e, 0x73, 0x65, 0x2f, 0x4d, 0x61, 0x74, 0x4d, 0x75, 0x6c, 0x00,
  0x34, 0xfe, 0xff, 0xff, 0x2a, 0xff, 0xff, 0xff, 0x04, 0x00, 0x00, 0x00,
  0x08, 0x00, 0x00, 0x00, 0xff, 0xff, 0xff, 0xff, 0x70, 0x00, 0x00, 0x00,
  0x00, 0x00, 0x0e, 0x00, 0x18, 0x00, 0x08, 0x00, 0x07, 0x00, 0x0c, 0x00,
  0x10, 0x00, 0x14, 0x00, 0x0e, 0x00, 0x00, 0x00, 0x00, 0x00, 0x00, 0x02,
  0x10, 0x00, 0x00, 0x00, 0x04, 0x00, 0x00, 0x00, 0x10, 0x00, 0x00, 0x00,
  0x2c, 0x00, 0x00, 0x00, 0x01, 0x00, 0x00, 0x00, 0x02, 0x00, 0x00, 0x00,
  0x18, 0x00, 0x00, 0x00, 0x73, 0x65, 0x71, 0x75, 0x65, 0x6e, 0x74, 0x69,
  0x61, 0x6c, 0x2f, 0x66, 0x6c, 0x61, 0x74, 0x74, 0x65, 0x6e, 0x2f, 0x43,
  0x6f, 0x6e, 0x73, 0x74, 0x00, 0x00, 0x00, 0x00, 0x9c, 0xfe, 0xff, 0xff,
  0x92, 0xff, 0xff, 0xff, 0x04, 0x00, 0x00, 0x00, 0x10, 0x00, 0x00, 0x00,
  0xe8, 0x3f, 0x6f, 0xc0, 0xa7, 0xc2, 0xa4, 0xc0, 0xf2, 0x1d, 0x6a, 0x3f,
  0x35, 0xe5, 0x06, 0x40, 0x0a, 0xff, 0xff, 0xff, 0x10, 0x00, 0x00, 0x00,
  0x03, 0x00, 0x00, 0x00, 0x10, 0x00, 0x00, 0x00, 0x3c, 0x00, 0x00, 0x00,
  0x01, 0x00, 0x00, 0x00, 0x04, 0x00, 0x00, 0x00, 0x29, 0x00, 0x00, 0x00,
  0x73, 0x65, 0x71, 0x75, 0x65, 0x6e, 0x74, 0x69, 0x61, 0x6c, 0x2f, 0x64,
  0x65, 0x6e, 0x73, 0x65, 0x5f, 0x31, 0x2f, 0x42, 0x69, 0x61, 0x73, 0x41,
  0x64, 0x64, 0x2f, 0x52, 0x65, 0x61, 0x64, 0x56, 0x61, 0x72, 0x69, 0x61,
  0x62, 0x6c, 0x65, 0x4f, 0x70, 0x00, 0x00, 0x00, 0x60, 0xff, 0xff, 0xff,
  0x00, 0x00, 0x06, 0x00, 0x08, 0x00, 0x04, 0x00, 0x06, 0x00, 0x00, 0x00,
  0x04, 0x00, 0x00, 0x00, 0x40, 0x00, 0x00, 0x00, 0x63, 0x90, 0x0b, 0xbf,
  0x19, 0x6e, 0x4c, 0x3e, 0x99, 0xb3, 0x49, 0xbf, 0x3d, 0x59, 0xc8, 0x3e,
  0x99, 0x43, 0x71, 0x3f, 0xe7, 0x7c, 0x6d, 0xbe, 0x4e, 0x8d, 0x75, 0xbe,
  0x11, 0x51, 0xa3, 0xbd, 0x9b, 0x2c, 0x56, 0x3e, 0x58, 0xed, 0x80, 0xbf,
  0x2f, 0x2f, 0xe5, 0x3e, 0xa9, 0xe0, 0xdd, 0x3f, 0xdb, 0x94, 0x51, 0x3f,
  0xd9, 0x07, 0x86, 0x3f, 0x24, 0xfe, 0x40, 0xbe, 0x4b, 0x2d, 0x35, 0x3e,
  0xae, 0xff, 0xff, 0xff, 0x10, 0x00, 0x00, 0x00, 0x02, 0x00, 0x00, 0x00,
  0x10, 0x00, 0x00, 0x00, 0x3c, 0x00, 0x00, 0x00, 0x01, 0x00, 0x00, 0x00,
  0x10, 0x00, 0x00, 0x00, 0x27, 0x00, 0x00, 0x00, 0x73, 0x65, 0x71, 0x75,
  0x65, 0x6e, 0x74, 0x69, 0x61, 0x6c, 0x2f, 0x64, 0x65, 0x6e, 0x73, 0x65,
  0x2f, 0x42, 0x69, 0x61, 0x73, 0x41, 0x64, 0x64, 0x2f, 0x52, 0x65, 0x61,
  0x64, 0x56, 0x61, 0x72, 0x69, 0x61, 0x62, 0x6c, 0x65, 0x4f, 0x70, 0x00,
  0x04, 0x00, 0x06, 0x00, 0x04, 0x00, 0x00, 0x00, 0x00, 0x00, 0x0e, 0x00,
  0x14, 0x00, 0x04, 0x00, 0x00, 0x00, 0x08, 0x00, 0x0c, 0x00, 0x10, 0x00,
  0x0e, 0x00, 0x00, 0x00, 0x10, 0x00, 0x00, 0x00, 0x01, 0x00, 0x00, 0x00,
  0x1c, 0x00, 0x00, 0x00, 0x2c, 0x00, 0x00, 0x00, 0x04, 0x00, 0x00, 0x00,
  0x01, 0x00, 0x00, 0x00, 0x40, 0x00, 0x00, 0x00, 0x03, 0x00, 0x00, 0x00,
  0x01, 0x00, 0x00, 0x00, 0x0c, 0x00, 0x00, 0x00, 0x63, 0x6f, 0x6e, 0x76,
  0x32, 0x64, 0x5f, 0x69, 0x6e, 0x70, 0x75, 0x74, 0x00, 0x00, 0x00, 0x00,
  0xfc, 0xff, 0xff, 0xff, 0x04, 0x00, 0x04, 0x00, 0x04, 0x00, 0x00, 0x00
};


unsigned int model_tflite_len = 12384 ;// Fill the int in `src/model.cc` here